#include <cstdint>
#include "model_data.h"

alignas(16) const unsigned char keyword_model_quantized_tflite[] = {
    32, 0, 0, 0, 84, 70, 76, 51, 0, 0, 0, 0, 
    20, 0, 32, 0, 28, 0, 24, 0, 20, 0, 16, 0, 
    12, 0, 0, 0, 8, 0, 4, 0, 20, 0, 0, 0, 
    28, 0, 0, 0, 152, 0, 0, 0, 240, 0, 0, 0, 
    240, 103, 0, 0, 0, 104, 0, 0, 172, 133, 0, 0, 
    3, 0, 0, 0, 1, 0, 0, 0, 16, 0, 0, 0, 
    0, 0, 10, 0, 16, 0, 12, 0, 8, 0, 4, 0, 
    10, 0, 0, 0, 12, 0, 0, 0, 28, 0, 0, 0, 
    60, 0, 0, 0, 15, 0, 0, 0, 115, 101, 114, 118, 
    105, 110, 103, 95, 100, 101, 102, 97, 117, 108, 116, 0, 
    1, 0, 0, 0, 4, 0, 0, 0, 144, 255, 255, 255, 
    20, 0, 0, 0, 4, 0, 0, 0, 8, 0, 0, 0, 
    111, 117, 116, 112, 117, 116, 95, 48, 0, 0, 0, 0, 
    1, 0, 0, 0, 4, 0, 0, 0, 242, 151, 255, 255, 
    4, 0, 0, 0, 12, 0, 0, 0, 107, 101, 114, 97, 
    115, 95, 116, 101, 110, 115, 111, 114, 0, 0, 0, 0, 
    2, 0, 0, 0, 52, 0, 0, 0, 4, 0, 0, 0, 
    220, 255, 255, 255, 23, 0, 0, 0, 4, 0, 0, 0, 
    19, 0, 0, 0, 67, 79, 78, 86, 69, 82, 83, 73, 
    79, 78, 95, 77, 69, 84, 65, 68, 65, 84, 65, 0, 
    8, 0, 12, 0, 8, 0, 4, 0, 8, 0, 0, 0, 
    22, 0, 0, 0, 4, 0, 0, 0, 19, 0, 0, 0, 
    109, 105, 110, 95, 114, 117, 110, 116, 105, 109, 101, 95, 
    118, 101, 114, 115, 105, 111, 110, 0, 24, 0, 0, 0, 
    252, 102, 0, 0, 244, 102, 0, 0, 220, 102, 0, 0, 
    188, 102, 0, 0, 44, 102, 0, 0, 156, 101, 0, 0, 
    140, 93, 0, 0, 124, 92, 0, 0, 108, 20, 0, 0, 
    220, 19, 0, 0, 204, 1, 0, 0, 124, 1, 0, 0, 
    220, 0, 0, 0, 212, 0, 0, 0, 204, 0, 0, 0, 
    196, 0, 0, 0, 188, 0, 0, 0, 180, 0, 0, 0, 
    172, 0, 0, 0, 164, 0, 0, 0, 156, 0, 0, 0, 
    148, 0, 0, 0, 116, 0, 0, 0, 4, 0, 0, 0, 
    206, 152, 255, 255, 4, 0, 0, 0, 96, 0, 0, 0, 
    12, 0, 0, 0, 8, 0, 14, 0, 8, 0, 4, 0, 
    8, 0, 0, 0, 16, 0, 0, 0, 40, 0, 0, 0, 
    0, 0, 6, 0, 8, 0, 4, 0, 6, 0, 0, 0, 
    4, 0, 0, 0, 1, 0, 0, 0, 235, 3, 0, 0, 
    12, 0, 24, 0, 20, 0, 16, 0, 12, 0, 4, 0, 
    12, 0, 0, 0, 150, 232, 184, 139, 224, 103, 4, 234, 
    2, 0, 0, 0, 2, 0, 0, 0, 4, 0, 0, 0, 
    6, 0, 0, 0, 50, 46, 50, 49, 46, 48, 0, 0, 
    58, 153, 255, 255, 4, 0, 0, 0, 16, 0, 0, 0, 
    49, 46, 49, 52, 46, 48, 0, 0, 0, 0, 0, 0, 
    0, 0, 0, 0, 44, 125, 255, 255, 48, 125, 255, 255, 
    52, 125, 255, 255, 56, 125, 255, 255, 60, 125, 255, 255, 
    64, 125, 255, 255, 68, 125, 255, 255, 72, 125, 255, 255, 
    76, 125, 255, 255, 122, 153, 255, 255, 4, 0, 0, 0, 
    144, 0, 0, 0, 143, 91, 166, 254, 129, 240, 196, 141, 
    247, 152, 183, 140, 178, 77, 129, 31, 230, 180, 46, 0, 
    213, 247, 114, 3, 105, 18, 129, 168, 80, 2, 23, 123, 
    129, 165, 200, 134, 244, 77, 45, 44, 149, 129, 54, 174, 
    24, 241, 3, 214, 40, 77, 127, 183, 248, 149, 99, 42, 
    23, 25, 81, 68, 137, 164, 129, 221, 1, 214, 34, 206, 
    189, 129, 161, 175, 193, 104, 9, 144, 59, 105, 229, 215, 
    129, 222, 5, 70, 129, 199, 141, 48, 104, 110, 7, 145, 
    216, 152, 183, 132, 129, 188, 51, 192, 127, 226, 75, 186, 
    238, 65, 249, 74, 254, 14, 2, 105, 127, 3, 223, 70, 
    26, 198, 202, 114, 79, 129, 50, 38, 19, 108, 191, 232, 
    76, 50, 129, 109, 198, 254, 43, 246, 50, 55, 129, 39, 
    244, 110, 67, 171, 22, 154, 255, 255, 4, 0, 0, 0, 
    64, 0, 0, 0, 93, 253, 255, 255, 200, 255, 255, 255, 
    55, 2, 0, 0, 40, 2, 0, 0, 159, 2, 0, 0, 
    92, 2, 0, 0, 117, 3, 0, 0, 175, 252, 255, 255, 
    183, 3, 0, 0, 92, 3, 0, 0, 220, 252, 255, 255, 
    113, 1, 0, 0, 133, 1, 0, 0, 69, 2, 0, 0, 
    205, 3, 0, 0, 36, 2, 0, 0, 98, 154, 255, 255, 
    4, 0, 0, 0, 0, 18, 0, 0, 194, 134, 233, 181, 
    47, 70, 108, 207, 12, 196, 176, 7, 98, 103, 127, 210, 
    148, 196, 39, 240, 221, 62, 79, 11, 179, 10, 176, 114, 
    98, 236, 223, 97, 168, 9, 234, 211, 201, 57, 29, 243, 
    69, 162, 13, 243, 65, 84, 253, 230, 229, 43, 214, 216, 
    47, 87, 5, 65, 236, 156, 241, 224, 91, 29, 41, 249, 
    26, 71, 207, 45, 187, 243, 223, 65, 79, 21, 203, 181, 
    50, 218, 38, 37, 47, 235, 234, 29, 22, 44, 108, 250, 
    239, 156, 17, 252, 195, 224, 226, 200, 31, 62, 164, 43, 
    28, 183, 222, 12, 10, 183, 211, 158, 31, 18, 209, 13, 
    89, 41, 231, 243, 37, 180, 51, 249, 251, 142, 236, 17, 
    154, 160, 185, 210, 65, 69, 0, 214, 203, 5, 188, 48, 
    75, 160, 40, 237, 195, 172, 171, 176, 196, 248, 252, 98, 
    36, 3, 27, 58, 255, 94, 254, 72, 81, 209, 241, 241, 
    236, 245, 246, 249, 211, 205, 36, 225, 40, 62, 167, 0, 
    177, 76, 248, 54, 68, 211, 226, 213, 248, 41, 203, 170, 
    68, 62, 38, 8, 1, 81, 89, 224, 181, 209, 20, 81, 
    30, 220, 226, 65, 52, 114, 70, 205, 242, 194, 52, 42, 
    18, 214, 27, 6, 16, 76, 247, 223, 41, 25, 245, 241, 
    236, 13, 187, 80, 213, 52, 205, 205, 195, 228, 7, 71, 
    104, 243, 233, 111, 231, 11, 207, 70, 48, 184, 37, 247, 
    81, 59, 214, 211, 61, 79, 193, 191, 61, 232, 21, 65, 
    216, 221, 182, 205, 37, 54, 217, 228, 254, 67, 225, 205, 
    60, 88, 32, 127, 61, 220, 69, 20, 93, 42, 193, 48, 
    7, 74, 40, 207, 192, 4, 216, 251, 4, 172, 24, 218, 
    100, 187, 217, 235, 76, 228, 194, 160, 195, 24, 40, 116, 
    239, 191, 163, 35, 248, 82, 82, 165, 24, 78, 242, 173, 
    215, 42, 99, 170, 101, 79, 26, 71, 108, 222, 172, 232, 
    225, 64, 97, 180, 80, 20, 198, 55, 8, 103, 23, 189, 
    43, 174, 127, 58, 32, 46, 77, 72, 52, 80, 182, 79, 
    107, 47, 34, 174, 220, 182, 2, 170, 214, 77, 255, 26, 
    56, 182, 111, 96, 168, 28, 90, 225, 236, 61, 231, 248, 
    20, 2, 201, 160, 44, 6, 249, 184, 252, 50, 242, 97, 
    240, 200, 104, 212, 75, 216, 175, 71, 35, 225, 189, 206, 
    98, 208, 35, 212, 217, 222, 100, 173, 231, 53, 249, 181, 
    230, 18, 231, 50, 169, 82, 175, 103, 232, 238, 212, 241, 
    174, 103, 77, 250, 177, 221, 106, 236, 227, 202, 255, 28, 
    13, 25, 233, 72, 124, 73, 76, 73, 1, 205, 237, 0, 
    30, 175, 105, 202, 199, 81, 90, 173, 203, 208, 247, 6, 
    242, 116, 96, 7, 184, 244, 11, 28, 218, 3, 110, 97, 
    118, 219, 19, 195, 178, 83, 82, 216, 73, 169, 237, 34, 
    204, 200, 203, 91, 209, 29, 174, 255, 25, 255, 25, 227, 
    64, 241, 93, 230, 236, 204, 17, 189, 216, 15, 195, 57, 
    207, 240, 245, 225, 26, 185, 85, 37, 69, 91, 226, 220, 
    90, 41, 237, 15, 40, 255, 212, 66, 230, 36, 183, 237, 
    212, 41, 227, 41, 101, 250, 200, 3, 165, 189, 47, 67, 
    177, 169, 83, 0, 26, 15, 94, 52, 194, 76, 30, 70, 
    23, 43, 53, 127, 167, 2, 17, 68, 36, 111, 26, 16, 
    13, 117, 168, 214, 198, 109, 204, 5, 245, 223, 164, 71, 
    216, 14, 165, 65, 43, 215, 205, 247, 11, 165, 220, 230, 
    222, 64, 58, 225, 239, 1, 12, 239, 165, 247, 84, 31, 
    22, 174, 138, 41, 203, 79, 15, 241, 223, 219, 237, 48, 
    194, 197, 51, 231, 36, 229, 129, 177, 38, 9, 31, 185, 
    248, 190, 49, 48, 182, 196, 60, 176, 239, 199, 32, 189, 
    215, 253, 47, 43, 235, 250, 54, 219, 215, 9, 18, 58, 
    247, 75, 26, 6, 70, 198, 55, 0, 51, 1, 218, 237, 
    47, 141, 46, 46, 86, 218, 11, 213, 14, 14, 52, 197, 
    255, 196, 181, 54, 253, 71, 195, 234, 195, 175, 2, 224, 
    213, 8, 189, 235, 200, 250, 173, 81, 176, 20, 71, 76, 
    207, 55, 186, 252, 254, 235, 219, 195, 57, 26, 159, 42, 
    7, 221, 55, 5, 252, 24, 208, 168, 207, 22, 61, 223, 
    250, 28, 93, 236, 201, 73, 51, 245, 68, 45, 109, 226, 
    200, 18, 40, 200, 16, 240, 206, 174, 60, 22, 213, 211, 
    64, 202, 70, 31, 82, 191, 108, 51, 62, 92, 75, 237, 
    217, 183, 40, 115, 56, 112, 187, 82, 205, 60, 87, 100, 
    219, 117, 110, 26, 117, 109, 157, 114, 17, 2, 206, 10, 
    82, 34, 204, 222, 109, 118, 228, 169, 193, 225, 23, 3, 
    42, 52, 127, 239, 94, 86, 84, 219, 84, 183, 121, 194, 
    228, 22, 200, 117, 194, 55, 76, 225, 235, 217, 108, 41, 
    48, 42, 37, 202, 117, 17, 172, 70, 59, 121, 109, 219, 
    98, 35, 179, 60, 195, 115, 15, 0, 117, 8, 240, 76, 
    165, 114, 233, 110, 222, 210, 101, 201, 181, 109, 36, 226, 
    188, 91, 175, 85, 174, 27, 70, 93, 235, 4, 253, 2, 
    60, 200, 179, 231, 80, 85, 5, 65, 205, 12, 251, 77, 
    194, 207, 75, 68, 246, 115, 43, 66, 107, 8, 204, 100, 
    68, 27, 64, 119, 224, 83, 254, 203, 55, 205, 175, 191, 
    23, 12, 54, 223, 54, 82, 119, 226, 0, 34, 61, 36, 
    193, 236, 29, 47, 219, 254, 7, 81, 5, 249, 249, 6, 
    96, 227, 53, 56, 80, 230, 17, 24, 201, 10, 191, 69, 
    221, 3, 99, 4, 182, 236, 112, 194, 68, 245, 220, 187, 
    238, 116, 235, 74, 110, 40, 93, 87, 210, 21, 211, 67, 
    7, 55, 250, 68, 5, 189, 3, 35, 215, 127, 40, 28, 
    220, 236, 61, 67, 55, 22, 199, 207, 199, 67, 54, 25, 
    46, 99, 248, 221, 22, 27, 224, 204, 18, 204, 211, 212, 
    70, 0, 2, 16, 64, 95, 85, 246, 60, 154, 80, 17, 
    155, 3, 19, 246, 243, 252, 177, 31, 59, 60, 192, 206, 
    27, 30, 77, 166, 190, 237, 6, 47, 192, 2, 205, 248, 
    79, 3, 252, 10, 241, 146, 35, 1, 164, 231, 89, 253, 
    211, 167, 207, 19, 201, 68, 4, 24, 223, 42, 54, 91, 
    217, 249, 241, 28, 96, 27, 192, 223, 226, 170, 41, 236, 
    210, 194, 22, 248, 22, 29, 82, 186, 187, 148, 222, 54, 
    220, 214, 211, 184, 173, 186, 60, 204, 222, 1, 73, 232, 
    97, 158, 33, 33, 95, 77, 78, 187, 107, 189, 235, 247, 
    253, 40, 65, 239, 82, 173, 253, 181, 35, 229, 203, 219, 
    45, 114, 254, 239, 4, 35, 110, 57, 246, 231, 243, 173, 
    208, 180, 231, 156, 47, 107, 39, 127, 115, 108, 67, 243, 
    69, 182, 92, 149, 203, 164, 203, 164, 239, 159, 17, 174, 
    78, 95, 23, 231, 11, 189, 42, 50, 194, 236, 33, 114, 
    78, 149, 173, 40, 38, 177, 218, 253, 51, 215, 148, 66, 
    235, 251, 54, 84, 249, 34, 69, 181, 192, 74, 114, 13, 
    46, 248, 171, 21, 230, 25, 190, 99, 77, 246, 188, 207, 
    234, 94, 193, 169, 82, 115, 11, 221, 24, 210, 234, 87, 
    207, 214, 61, 16, 245, 168, 9, 179, 167, 26, 241, 237, 
    222, 94, 98, 122, 201, 84, 3, 181, 1, 23, 101, 215, 
    215, 83, 73, 184, 241, 80, 42, 233, 37, 43, 97, 218, 
    37, 73, 83, 184, 203, 75, 4, 216, 103, 26, 8, 108, 
    21, 56, 249, 40, 99, 18, 92, 201, 11, 210, 60, 222, 
    224, 115, 220, 37, 52, 230, 96, 206, 51, 254, 241, 78, 
    69, 60, 72, 12, 93, 234, 219, 127, 67, 189, 104, 163, 
    140, 240, 203, 57, 34, 149, 94, 96, 74, 136, 253, 79, 
    95, 165, 103, 203, 210, 38, 191, 83, 224, 47, 26, 89, 
    135, 172, 252, 196, 16, 243, 71, 190, 222, 165, 38, 96, 
    191, 43, 89, 64, 69, 69, 151, 252, 133, 161, 161, 3, 
    155, 37, 147, 149, 223, 66, 37, 242, 221, 39, 244, 148, 
    99, 214, 44, 176, 106, 231, 143, 133, 182, 67, 131, 173, 
    2, 136, 42, 19, 145, 242, 204, 28, 219, 34, 253, 233, 
    75, 91, 182, 39, 161, 58, 129, 183, 195, 209, 18, 85, 
    210, 41, 254, 242, 169, 18, 9, 50, 27, 82, 228, 18, 
    245, 223, 192, 187, 50, 240, 242, 42, 136, 176, 194, 85, 
    211, 37, 227, 156, 133, 133, 198, 139, 4, 187, 8, 94, 
    155, 240, 80, 154, 42, 218, 91, 22, 248, 183, 47, 199, 
    253, 49, 5, 223, 26, 70, 9, 250, 76, 64, 3, 83, 
    77, 75, 104, 223, 228, 7, 171, 94, 201, 169, 163, 38, 
    45, 178, 19, 71, 60, 166, 21, 101, 125, 245, 215, 33, 
    89, 37, 44, 216, 239, 28, 123, 234, 167, 0, 104, 243, 
    20, 127, 118, 44, 60, 101, 230, 97, 211, 59, 101, 236, 
    183, 13, 195, 16, 87, 237, 8, 64, 205, 199, 241, 226, 
    196, 254, 50, 103, 162, 11, 189, 23, 37, 182, 233, 58, 
    169, 113, 40, 97, 17, 192, 32, 19, 253, 242, 94, 77, 
    16, 7, 230, 175, 41, 227, 245, 63, 190, 118, 191, 124, 
    202, 90, 47, 9, 97, 174, 113, 20, 4, 184, 211, 2, 
    221, 83, 106, 11, 195, 21, 77, 1, 243, 114, 21, 187, 
    193, 125, 67, 205, 22, 109, 104, 253, 37, 51, 231, 219, 
    242, 205, 183, 74, 179, 232, 198, 63, 240, 57, 32, 207, 
    254, 31, 63, 186, 41, 185, 241, 0, 12, 218, 39, 66, 
    62, 244, 3, 34, 246, 185, 232, 80, 236, 202, 177, 225, 
    195, 163, 51, 69, 98, 190, 234, 26, 10, 78, 231, 40, 
    234, 14, 178, 50, 37, 143, 65, 62, 62, 210, 212, 13, 
    73, 33, 243, 241, 255, 19, 238, 54, 227, 188, 246, 57, 
    226, 21, 161, 164, 209, 3, 247, 207, 20, 73, 34, 8, 
    191, 152, 210, 195, 226, 180, 229, 5, 189, 78, 12, 71, 
    251, 194, 150, 86, 23, 205, 69, 61, 201, 176, 177, 1, 
    250, 202, 233, 18, 241, 185, 129, 243, 241, 231, 28, 14, 
    70, 3, 214, 153, 14, 212, 201, 74, 189, 189, 211, 57, 
    203, 200, 225, 166, 180, 217, 129, 192, 233, 53, 44, 254, 
    211, 148, 205, 76, 200, 217, 36, 160, 207, 195, 5, 162, 
    15, 15, 174, 220, 61, 235, 15, 84, 173, 12, 218, 218, 
    229, 158, 144, 238, 18, 241, 193, 12, 31, 230, 234, 59, 
    240, 255, 46, 180, 215, 182, 33, 228, 73, 16, 30, 217, 
    188, 216, 50, 66, 8, 158, 67, 47, 19, 49, 32, 215, 
    28, 240, 218, 203, 222, 29, 216, 3, 18, 234, 1, 3, 
    212, 60, 153, 15, 190, 81, 1, 33, 33, 255, 47, 205, 
    218, 229, 0, 226, 38, 194, 234, 226, 195, 242, 119, 17, 
    57, 182, 255, 252, 29, 180, 81, 50, 60, 5, 246, 185, 
    76, 204, 69, 196, 172, 241, 132, 59, 180, 237, 184, 222, 
    35, 227, 49, 213, 56, 192, 8, 32, 215, 199, 129, 45, 
    176, 219, 82, 12, 31, 71, 225, 49, 26, 246, 84, 245, 
    36, 219, 178, 202, 240, 232, 10, 241, 233, 47, 46, 215, 
    180, 10, 97, 205, 23, 11, 104, 52, 1, 98, 22, 250, 
    190, 37, 66, 30, 52, 32, 53, 89, 48, 242, 32, 201, 
    208, 96, 212, 60, 184, 33, 224, 111, 177, 250, 12, 40, 
    81, 199, 223, 84, 253, 34, 69, 49, 11, 53, 88, 70, 
    191, 253, 99, 24, 212, 93, 74, 39, 43, 118, 245, 96, 
    3, 203, 49, 246, 189, 178, 196, 189, 202, 11, 19, 176, 
    121, 73, 28, 101, 197, 118, 116, 229, 224, 201, 5, 194, 
    222, 71, 9, 72, 63, 19, 216, 222, 32, 61, 125, 2, 
    69, 94, 50, 52, 31, 213, 127, 97, 229, 81, 168, 79, 
    42, 197, 15, 243, 67, 70, 246, 55, 218, 210, 36, 169, 
    4, 57, 233, 211, 196, 51, 85, 2, 34, 49, 207, 226, 
    72, 36, 246, 55, 94, 234, 13, 28, 76, 203, 1, 29, 
    4, 18, 179, 97, 68, 203, 163, 196, 28, 50, 82, 43, 
    59, 157, 15, 7, 212, 20, 218, 100, 27, 201, 205, 41, 
    48, 47, 57, 152, 194, 40, 204, 148, 207, 248, 74, 232, 
    62, 66, 242, 90, 58, 30, 66, 19, 97, 216, 237, 7, 
    23, 180, 208, 44, 55, 29, 35, 255, 243, 246, 214, 249, 
    197, 22, 234, 7, 245, 221, 249, 201, 220, 221, 198, 189, 
    244, 239, 34, 232, 57, 169, 129, 132, 14, 230, 255, 0, 
    56, 220, 182, 101, 63, 59, 248, 192, 34, 250, 211, 142, 
    255, 52, 43, 1, 5, 14, 203, 7, 252, 75, 235, 160, 
    249, 17, 10, 13, 95, 0, 200, 194, 237, 18, 184, 244, 
    234, 185, 63, 77, 244, 165, 144, 138, 33, 229, 56, 21, 
    241, 170, 24, 33, 240, 22, 106, 15, 208, 17, 212, 209, 
    69, 102, 30, 208, 244, 190, 33, 23, 205, 96, 57, 94, 
    229, 1, 17, 14, 79, 14, 89, 35, 245, 250, 131, 76, 
    217, 121, 22, 183, 57, 34, 219, 252, 10, 219, 61, 181, 
    239, 217, 225, 197, 17, 19, 74, 31, 213, 88, 52, 13, 
    244, 57, 20, 208, 248, 3, 233, 58, 42, 37, 252, 97, 
    33, 219, 248, 245, 23, 36, 52, 74, 192, 194, 208, 66, 
    209, 85, 209, 87, 107, 88, 253, 204, 239, 35, 87, 184, 
    243, 61, 58, 195, 149, 211, 252, 46, 5, 1, 67, 87, 
    147, 221, 103, 18, 161, 7, 4, 155, 1, 81, 129, 9, 
    249, 11, 80, 0, 208, 155, 101, 140, 20, 66, 210, 138, 
    4, 213, 181, 7, 27, 234, 85, 108, 59, 46, 157, 22, 
    41, 19, 163, 30, 228, 241, 12, 204, 232, 17, 234, 213, 
    76, 11, 207, 29, 36, 226, 251, 62, 33, 71, 98, 223, 
    8, 167, 211, 200, 69, 105, 200, 0, 235, 233, 11, 234, 
    235, 68, 255, 157, 185, 222, 167, 236, 185, 52, 62, 211, 
    186, 238, 223, 229, 188, 70, 46, 69, 63, 209, 255, 39, 
    78, 68, 195, 193, 227, 244, 3, 48, 198, 92, 38, 11, 
    169, 67, 25, 55, 219, 255, 202, 244, 226, 51, 129, 233, 
    216, 244, 248, 251, 49, 194, 149, 19, 164, 200, 89, 231, 
    132, 186, 187, 154, 152, 39, 9, 41, 123, 76, 4, 96, 
    211, 161, 64, 31, 220, 165, 14, 137, 146, 56, 148, 217, 
    120, 54, 212, 233, 235, 52, 104, 221, 174, 12, 195, 188, 
    168, 62, 226, 213, 239, 35, 91, 28, 29, 32, 202, 47, 
    215, 193, 214, 62, 182, 50, 204, 229, 227, 28, 135, 232, 
    63, 64, 193, 226, 51, 196, 249, 253, 218, 251, 58, 235, 
    226, 195, 215, 172, 3, 251, 184, 55, 207, 38, 1, 223, 
    206, 0, 240, 28, 241, 201, 129, 253, 184, 36, 26, 228, 
    239, 200, 229, 199, 7, 254, 36, 54, 79, 204, 189, 166, 
    25, 207, 235, 205, 183, 21, 248, 41, 237, 3, 29, 235, 
    8, 10, 225, 25, 42, 33, 173, 47, 211, 191, 23, 222, 
    206, 227, 218, 45, 212, 228, 154, 231, 207, 14, 58, 203, 
    4, 9, 191, 222, 21, 246, 191, 251, 91, 62, 208, 218, 
    38, 36, 46, 28, 44, 52, 234, 10, 223, 2, 60, 62, 
    23, 217, 206, 7, 50, 188, 229, 45, 21, 235, 252, 33, 
    6, 226, 62, 47, 86, 23, 191, 211, 61, 60, 15, 221, 
    210, 78, 240, 224, 201, 57, 179, 238, 208, 46, 69, 207, 
    184, 26, 77, 52, 38, 93, 35, 10, 236, 83, 80, 47, 
    32, 237, 69, 19, 12, 172, 208, 11, 140, 212, 224, 212, 
    250, 186, 172, 213, 187, 139, 179, 161, 55, 223, 1, 80, 
    6, 7, 5, 239, 16, 242, 236, 181, 251, 246, 43, 71, 
    28, 177, 216, 13, 15, 35, 72, 179, 29, 229, 230, 33, 
    189, 246, 99, 3, 26, 215, 189, 17, 176, 194, 222, 34, 
    166, 192, 194, 225, 225, 142, 229, 185, 172, 26, 44, 0, 
    82, 6, 63, 218, 76, 99, 217, 207, 46, 48, 32, 49, 
    62, 58, 221, 211, 63, 126, 43, 8, 60, 238, 175, 62, 
    226, 221, 72, 196, 2, 218, 129, 155, 28, 222, 170, 171, 
    233, 198, 155, 210, 187, 10, 209, 14, 76, 183, 10, 220, 
    217, 249, 143, 219, 173, 151, 7, 181, 13, 190, 255, 13, 
    41, 233, 4, 235, 206, 177, 133, 71, 210, 244, 22, 230, 
    240, 231, 223, 42, 201, 240, 34, 63, 3, 149, 163, 55, 
    212, 25, 235, 88, 2, 27, 6, 190, 72, 21, 10, 45, 
    171, 207, 41, 20, 194, 36, 12, 181, 227, 23, 217, 13, 
    230, 250, 63, 216, 212, 239, 167, 202, 197, 47, 190, 240, 
    87, 6, 37, 208, 202, 17, 37, 255, 193, 6, 10, 47, 
    199, 204, 32, 0, 9, 214, 191, 220, 197, 66, 20, 200, 
    201, 98, 34, 224, 50, 135, 77, 243, 44, 243, 254, 210, 
    249, 56, 52, 45, 81, 252, 95, 216, 199, 226, 207, 42, 
    1, 17, 208, 229, 39, 223, 230, 62, 39, 70, 251, 29, 
    35, 129, 58, 19, 227, 16, 206, 171, 222, 17, 245, 205, 
    212, 172, 238, 27, 199, 216, 234, 25, 188, 24, 127, 11, 
    188, 248, 194, 236, 196, 48, 48, 248, 39, 96, 251, 239, 
    81, 66, 215, 47, 59, 32, 52, 63, 13, 243, 71, 196, 
    97, 225, 97, 201, 86, 197, 117, 119, 248, 240, 27, 38, 
    77, 236, 50, 178, 250, 231, 27, 10, 92, 212, 117, 66, 
    231, 21, 94, 78, 71, 0, 59, 3, 207, 67, 228, 33, 
    6, 112, 11, 231, 58, 190, 232, 249, 84, 26, 213, 26, 
    20, 75, 242, 255, 101, 88, 249, 19, 225, 23, 96, 207, 
    107, 185, 113, 250, 41, 221, 45, 241, 78, 19, 215, 68, 
    183, 172, 225, 229, 210, 205, 212, 196, 95, 111, 37, 212, 
    88, 54, 215, 76, 55, 4, 16, 54, 255, 59, 243, 78, 
    81, 32, 175, 61, 96, 94, 2, 94, 236, 174, 245, 31, 
    191, 185, 99, 169, 108, 60, 168, 32, 182, 175, 50, 236, 
    229, 207, 168, 9, 12, 62, 189, 244, 227, 51, 55, 65, 
    192, 238, 50, 253, 234, 66, 232, 159, 190, 210, 111, 76, 
    97, 35, 253, 42, 74, 91, 250, 233, 156, 205, 68, 176, 
    31, 56, 185, 83, 110, 67, 5, 93, 215, 220, 74, 247, 
    196, 199, 218, 80, 196, 29, 246, 154, 249, 253, 227, 81, 
    65, 189, 0, 46, 71, 12, 51, 202, 218, 115, 236, 230, 
    68, 2, 90, 242, 198, 247, 88, 240, 180, 89, 239, 178, 
    215, 205, 229, 249, 33, 31, 15, 205, 59, 234, 251, 231, 
    225, 6, 89, 205, 96, 102, 201, 68, 6, 56, 40, 117, 
    196, 251, 194, 127, 251, 190, 169, 29, 6, 77, 56, 160, 
    210, 229, 217, 254, 63, 249, 113, 99, 191, 253, 233, 163, 
    17, 86, 83, 10, 84, 15, 151, 38, 34, 115, 92, 99, 
    216, 238, 217, 174, 210, 173, 218, 34, 213, 29, 58, 14, 
    65, 195, 30, 205, 17, 245, 211, 215, 224, 179, 210, 46, 
    61, 220, 16, 102, 19, 77, 101, 110, 215, 220, 39, 207, 
    5, 20, 22, 230, 19, 217, 22, 97, 30, 1, 252, 231, 
    196, 189, 236, 21, 105, 69, 127, 47, 95, 8, 80, 242, 
    84, 56, 196, 239, 187, 252, 191, 202, 70, 48, 234, 54, 
    7, 208, 246, 2, 98, 104, 211, 227, 65, 10, 32, 236, 
    5, 238, 239, 249, 76, 252, 27, 109, 179, 31, 89, 226, 
    217, 199, 69, 240, 234, 169, 146, 83, 52, 73, 26, 34, 
    88, 115, 184, 230, 63, 234, 194, 17, 174, 159, 49, 42, 
    216, 15, 214, 229, 108, 5, 85, 215, 199, 42, 80, 56, 
    201, 138, 185, 249, 177, 206, 189, 253, 16, 22, 220, 243, 
    246, 191, 64, 200, 245, 206, 130, 10, 26, 163, 16, 236, 
    87, 227, 246, 248, 229, 203, 12, 214, 28, 139, 185, 185, 
    4, 138, 5, 237, 26, 238, 182, 195, 18, 57, 235, 13, 
    206, 31, 188, 232, 180, 203, 215, 217, 29, 4, 57, 246, 
    209, 34, 56, 51, 46, 238, 34, 45, 30, 129, 251, 26, 
    42, 245, 3, 200, 220, 226, 86, 250, 200, 181, 214, 248, 
    235, 196, 243, 70, 68, 197, 17, 30, 54, 42, 224, 74, 
    254, 39, 46, 7, 75, 107, 16, 247, 254, 175, 186, 231, 
    24, 235, 15, 46, 9, 59, 35, 64, 87, 69, 216, 153, 
    162, 191, 181, 4, 37, 74, 234, 218, 29, 51, 103, 209, 
    16, 89, 58, 167, 41, 4, 186, 228, 41, 5, 191, 50, 
    227, 238, 47, 188, 24, 247, 149, 79, 77, 248, 33, 29, 
    70, 65, 79, 207, 36, 208, 37, 199, 68, 94, 23, 32, 
    64, 237, 79, 74, 133, 227, 52, 157, 22, 37, 25, 202, 
    222, 226, 161, 33, 93, 227, 19, 201, 252, 245, 59, 251, 
    59, 238, 39, 250, 35, 127, 230, 101, 212, 202, 44, 90, 
    207, 50, 78, 62, 57, 201, 50, 26, 23, 12, 31, 253, 
    59, 25, 37, 34, 249, 173, 236, 32, 95, 196, 222, 160, 
    172, 24, 3, 123, 190, 200, 101, 209, 226, 18, 179, 50, 
    235, 30, 4, 5, 2, 108, 252, 109, 246, 250, 189, 253, 
    254, 26, 25, 199, 232, 51, 204, 220, 175, 26, 243, 41, 
    77, 126, 98, 60, 15, 15, 10, 178, 27, 49, 55, 33, 
    250, 11, 157, 13, 23, 94, 105, 244, 228, 192, 105, 97, 
    64, 66, 244, 184, 102, 6, 74, 70, 93, 200, 229, 42, 
    6, 19, 246, 198, 86, 239, 12, 235, 210, 40, 20, 38, 
    210, 75, 28, 127, 81, 214, 15, 234, 0, 210, 82, 53, 
    52, 12, 203, 50, 80, 110, 238, 16, 183, 62, 104, 60, 
    66, 8, 232, 190, 58, 46, 59, 40, 204, 216, 208, 203, 
    86, 37, 47, 206, 100, 78, 63, 50, 99, 225, 205, 65, 
    91, 19, 98, 68, 41, 217, 54, 50, 226, 46, 43, 38, 
    203, 77, 186, 208, 248, 54, 82, 12, 89, 22, 229, 45, 
    75, 5, 20, 216, 97, 99, 208, 1, 194, 95, 88, 204, 
    180, 247, 225, 10, 232, 11, 87, 218, 10, 73, 223, 35, 
    208, 23, 33, 62, 201, 216, 246, 186, 124, 26, 239, 92, 
    96, 21, 19, 201, 36, 205, 74, 27, 42, 196, 59, 64, 
    3, 80, 233, 87, 93, 36, 223, 238, 98, 40, 13, 31, 
    74, 24, 3, 80, 206, 82, 96, 8, 214, 218, 31, 4, 
    230, 228, 127, 120, 19, 83, 103, 233, 188, 99, 85, 206, 
    253, 233, 242, 82, 18, 9, 73, 109, 13, 240, 91, 10, 
    101, 52, 4, 199, 224, 31, 63, 48, 102, 188, 38, 116, 
    189, 32, 57, 187, 73, 91, 223, 89, 37, 98, 204, 71, 
    63, 248, 88, 254, 236, 203, 10, 8, 86, 72, 96, 221, 
    197, 70, 200, 249, 237, 56, 87, 31, 218, 215, 181, 61, 
    47, 76, 21, 194, 226, 70, 46, 229, 76, 227, 18, 66, 
    202, 86, 29, 231, 245, 227, 249, 216, 15, 31, 191, 23, 
    193, 59, 98, 96, 51, 4, 28, 85, 252, 231, 16, 54, 
    60, 83, 196, 90, 59, 36, 62, 45, 216, 22, 54, 206, 
    78, 221, 30, 28, 248, 119, 245, 194, 162, 182, 33, 48, 
    16, 60, 98, 73, 242, 83, 218, 243, 89, 244, 174, 78, 
    24, 87, 199, 36, 66, 76, 33, 32, 64, 3, 24, 37, 
    213, 203, 206, 202, 222, 25, 61, 211, 92, 184, 169, 102, 
    97, 66, 36, 208, 20, 86, 2, 58, 28, 176, 25, 196, 
    14, 215, 169, 178, 98, 54, 45, 173, 22, 249, 192, 85, 
    57, 34, 190, 86, 86, 43, 214, 182, 245, 196, 253, 81, 
    122, 93, 2, 37, 209, 103, 6, 127, 175, 225, 192, 21, 
    69, 29, 32, 172, 82, 201, 48, 244, 230, 31, 229, 49, 
    247, 252, 47, 48, 73, 103, 47, 211, 235, 56, 232, 37, 
    158, 236, 17, 84, 75, 65, 48, 51, 20, 24, 22, 176, 
    0, 254, 43, 116, 179, 217, 115, 52, 216, 204, 49, 216, 
    90, 19, 236, 28, 33, 240, 47, 78, 17, 79, 210, 89, 
    198, 217, 243, 3, 85, 207, 84, 228, 1, 43, 231, 107, 
    253, 51, 241, 3, 238, 193, 200, 14, 235, 95, 90, 174, 
    34, 76, 26, 252, 210, 7, 15, 120, 237, 51, 196, 7, 
    72, 113, 226, 84, 34, 107, 206, 72, 18, 12, 216, 26, 
    253, 213, 198, 253, 210, 217, 225, 85, 208, 16, 236, 99, 
    62, 80, 248, 127, 197, 8, 8, 9, 115, 222, 249, 228, 
    228, 81, 4, 86, 220, 121, 42, 42, 61, 188, 198, 1, 
    206, 222, 20, 200, 85, 102, 16, 216, 18, 103, 54, 86, 
    234, 193, 0, 217, 34, 251, 243, 27, 68, 251, 68, 198, 
    49, 226, 194, 4, 64, 186, 242, 233, 250, 78, 185, 166, 
    11, 13, 172, 236, 6, 94, 239, 71, 62, 7, 49, 197, 
    204, 32, 84, 14, 182, 10, 221, 194, 84, 236, 18, 214, 
    202, 88, 221, 87, 182, 214, 207, 186, 98, 34, 231, 70, 
    211, 100, 127, 25, 172, 48, 228, 68, 234, 45, 80, 72, 
    221, 196, 32, 88, 69, 6, 108, 40, 198, 5, 54, 184, 
    49, 212, 214, 217, 13, 243, 210, 98, 245, 26, 92, 67, 
    212, 80, 61, 63, 84, 33, 72, 226, 87, 77, 214, 12, 
    207, 235, 86, 227, 210, 5, 75, 185, 108, 109, 22, 198, 
    60, 86, 84, 58, 105, 99, 236, 59, 55, 170, 26, 84, 
    242, 6, 36, 58, 89, 232, 13, 51, 70, 1, 63, 31, 
    23, 3, 10, 206, 25, 6, 207, 207, 244, 212, 75, 213, 
    251, 56, 30, 19, 240, 47, 210, 192, 193, 70, 12, 82, 
    195, 89, 174, 43, 77, 65, 1, 250, 18, 166, 1, 198, 
    24, 250, 237, 174, 190, 248, 1, 224, 15, 13, 11, 233, 
    204, 15, 62, 190, 185, 201, 254, 223, 29, 243, 171, 63, 
    231, 248, 255, 236, 23, 22, 5, 26, 37, 209, 199, 234, 
    214, 195, 247, 241, 250, 244, 230, 223, 199, 5, 2, 232, 
    57, 39, 235, 48, 226, 183, 208, 232, 24, 41, 222, 6, 
    2, 218, 17, 242, 54, 12, 239, 18, 219, 192, 10, 4, 
    69, 249, 203, 13, 221, 241, 217, 186, 41, 226, 0, 252, 
    206, 254, 21, 65, 9, 39, 215, 20, 32, 204, 190, 65, 
    92, 64, 127, 32, 60, 195, 27, 207, 14, 170, 2, 17, 
    58, 244, 14, 221, 4, 11, 80, 71, 236, 24, 63, 191, 
    37, 190, 1, 215, 37, 34, 28, 239, 16, 109, 92, 224, 
    243, 22, 84, 227, 237, 206, 237, 194, 248, 89, 189, 210, 
    53, 201, 129, 228, 79, 115, 216, 185, 32, 1, 212, 200, 
    40, 43, 13, 54, 248, 207, 248, 83, 206, 10, 70, 204, 
    7, 221, 248, 159, 99, 8, 13, 12, 226, 59, 212, 234, 
    203, 248, 37, 204, 180, 176, 60, 225, 195, 57, 204, 249, 
    196, 60, 169, 78, 82, 111, 248, 13, 96, 96, 112, 95, 
    77, 236, 90, 208, 59, 215, 168, 0, 247, 211, 250, 75, 
    81, 45, 25, 196, 197, 230, 3, 170, 26, 231, 204, 57, 
    240, 37, 253, 252, 8, 201, 43, 35, 218, 208, 114, 58, 
    197, 59, 77, 163, 182, 212, 2, 232, 55, 5, 18, 83, 
    40, 185, 119, 63, 171, 41, 7, 171, 13, 30, 163, 232, 
    232, 19, 111, 54, 10, 239, 218, 28, 185, 24, 200, 192, 
    244, 211, 168, 3, 105, 98, 21, 49, 110, 172, 255, 255, 
    4, 0, 0, 0, 128, 0, 0, 0, 161, 252, 255, 255, 
    218, 3, 0, 0, 6, 5, 0, 0, 6, 3, 0, 0, 
    66, 252, 255, 255, 215, 3, 0, 0, 159, 5, 0, 0, 
    222, 254, 255, 255, 157, 1, 0, 0, 50, 255, 255, 255, 
    43, 5, 0, 0, 130, 251, 255, 255, 53, 252, 255, 255, 
    87, 5, 0, 0, 250, 252, 255, 255, 188, 255, 255, 255, 
    146, 254, 255, 255, 56, 254, 255, 255, 124, 1, 0, 0, 
    144, 252, 255, 255, 190, 4, 0, 0, 33, 3, 0, 0, 
    161, 0, 0, 0, 183, 251, 255, 255, 4, 2, 0, 0, 
    96, 5, 0, 0, 100, 5, 0, 0, 133, 5, 0, 0, 
    13, 3, 0, 0, 255, 4, 0, 0, 95, 253, 255, 255, 
    231, 0, 0, 0, 250, 172, 255, 255, 4, 0, 0, 0, 
    0, 72, 0, 0, 16, 199, 216, 57, 8, 227, 231, 54, 
    3, 32, 200, 46, 31, 0, 246, 67, 26, 248, 250, 18, 
    212, 240, 31, 98, 224, 237, 205, 242, 238, 15, 25, 93, 
    249, 223, 208, 53, 233, 4, 3, 68, 9, 229, 217, 44, 
    225, 244, 21, 38, 52, 24, 205, 11, 237, 235, 5, 72, 
    23, 249, 210, 249, 13, 9, 91, 49, 60, 249, 227, 30, 
    19, 14, 230, 81, 39, 22, 211, 248, 246, 6, 16, 22, 
    33, 43, 203, 48, 253, 250, 9, 72, 227, 253, 235, 4, 
    34, 14, 94, 82, 254, 248, 225, 249, 37, 15, 232, 90, 
    52, 39, 214, 8, 11, 4, 32, 25, 14, 46, 241, 37, 
    250, 44, 47, 83, 16, 214, 22, 230, 240, 7, 27, 78, 
    248, 249, 222, 28, 9, 242, 221, 95, 243, 3, 7, 48, 
    37, 19, 24, 68, 11, 227, 15, 59, 210, 22, 16, 103, 
    10, 6, 208, 226, 32, 220, 20, 74, 28, 215, 246, 37, 
    14, 227, 208, 96, 24, 252, 209, 9, 27, 216, 47, 7, 
    23, 13, 1, 65, 197, 213, 10, 33, 232, 216, 212, 255, 
    1, 212, 60, 54, 35, 255, 247, 58, 10, 223, 184, 76, 
    10, 248, 228, 12, 27, 14, 25, 69, 18, 9, 31, 18, 
    212, 43, 3, 126, 236, 11, 222, 191, 254, 247, 55, 67, 
    66, 245, 246, 27, 13, 234, 255, 127, 248, 228, 219, 255, 
    46, 211, 242, 64, 60, 226, 233, 26, 233, 252, 252, 106, 
    24, 235, 236, 247, 42, 252, 47, 32, 252, 202, 227, 33, 
    16, 32, 222, 80, 12, 226, 228, 45, 27, 19, 23, 67, 
    17, 250, 21, 58, 222, 246, 21, 65, 8, 13, 244, 246, 
    252, 237, 93, 22, 10, 38, 26, 22, 42, 17, 71, 129, 
    27, 227, 211, 230, 25, 62, 232, 251, 61, 222, 26, 205, 
    250, 37, 12, 191, 251, 25, 4, 16, 236, 63, 254, 12, 
    215, 24, 60, 227, 254, 6, 58, 222, 28, 215, 225, 0, 
    225, 3, 255, 255, 83, 198, 243, 236, 227, 60, 72, 194, 
    15, 59, 51, 5, 23, 226, 237, 85, 209, 57, 50, 49, 
    13, 236, 36, 213, 33, 221, 234, 234, 219, 16, 221, 244, 
    81, 1, 20, 23, 59, 10, 41, 196, 5, 8, 54, 0, 
    28, 20, 251, 50, 28, 225, 244, 39, 189, 17, 41, 228, 
    216, 36, 226, 8, 206, 46, 189, 69, 30, 44, 226, 14, 
    9, 209, 14, 12, 248, 4, 208, 243, 46, 49, 26, 227, 
    233, 242, 248, 59, 5, 69, 250, 254, 35, 220, 247, 15, 
    255, 238, 184, 26, 26, 4, 4, 8, 252, 47, 53, 245, 
    64, 13, 61, 8, 231, 46, 215, 59, 238, 215, 233, 248, 
    251, 231, 57, 16, 42, 43, 232, 15, 191, 36, 236, 250, 
    56, 35, 52, 188, 15, 34, 71, 192, 215, 26, 209, 239, 
    56, 22, 216, 3, 210, 45, 250, 22, 24, 5, 233, 212, 
    251, 47, 198, 229, 37, 25, 5, 55, 255, 193, 62, 226, 
    38, 26, 43, 214, 210, 12, 222, 26, 219, 59, 208, 231, 
    27, 253, 252, 238, 205, 65, 22, 22, 49, 5, 252, 187, 
    187, 34, 182, 252, 185, 45, 35, 231, 2, 239, 47, 237, 
    18, 207, 51, 191, 250, 252, 200, 221, 192, 234, 206, 44, 
    229, 3, 213, 218, 45, 26, 249, 16, 211, 227, 226, 50, 
    2, 244, 49, 238, 65, 5, 43, 200, 61, 27, 29, 46, 
    33, 227, 27, 56, 44, 61, 224, 40, 224, 5, 39, 169, 
    233, 10, 208, 4, 225, 20, 213, 80, 35, 42, 237, 67, 
    249, 9, 28, 220, 46, 17, 227, 8, 90, 29, 35, 40, 
    30, 73, 219, 252, 13, 20, 231, 23, 59, 58, 71, 67, 
    12, 41, 38, 109, 57, 203, 18, 7, 212, 241, 60, 241, 
    67, 42, 33, 199, 98, 41, 51, 76, 57, 67, 5, 79, 
    8, 74, 37, 184, 37, 229, 42, 31, 19, 213, 3, 35, 
    49, 15, 164, 230, 4, 36, 73, 33, 219, 239, 200, 34, 
    63, 207, 39, 78, 35, 250, 230, 17, 18, 25, 70, 230, 
    242, 43, 216, 237, 47, 225, 238, 125, 22, 11, 57, 19, 
    246, 233, 77, 34, 4, 196, 63, 17, 234, 47, 28, 30, 
    229, 13, 13, 18, 221, 17, 20, 4, 5, 39, 244, 36, 
    17, 201, 42, 74, 29, 17, 169, 62, 199, 46, 21, 241, 
    13, 46, 230, 16, 61, 36, 10, 82, 19, 232, 200, 69, 
    58, 23, 35, 233, 34, 56, 241, 212, 17, 47, 244, 46, 
    254, 47, 153, 215, 227, 21, 224, 210, 19, 218, 214, 203, 
    223, 224, 225, 11, 17, 89, 17, 28, 49, 35, 1, 6, 
    22, 16, 225, 41, 1, 25, 199, 127, 89, 248, 73, 202, 
    29, 18, 67, 193, 254, 183, 24, 59, 109, 239, 20, 58, 
    27, 73, 50, 57, 35, 19, 76, 202, 208, 235, 252, 35, 
    14, 231, 7, 77, 98, 204, 177, 6, 48, 30, 62, 248, 
    239, 247, 55, 212, 49, 249, 11, 27, 203, 10, 24, 10, 
    232, 39, 42, 181, 53, 67, 10, 228, 24, 48, 4, 27, 
    124, 20, 255, 216, 213, 254, 55, 8, 246, 38, 216, 3, 
    36, 212, 219, 28, 196, 74, 43, 19, 30, 56, 238, 159, 
    56, 194, 235, 27, 213, 208, 225, 207, 229, 5, 2, 17, 
    221, 242, 14, 179, 58, 56, 25, 26, 37, 13, 216, 6, 
    13, 245, 49, 10, 196, 6, 243, 129, 218, 24, 220, 204, 
    201, 19, 18, 221, 3, 249, 234, 18, 67, 246, 22, 16, 
    236, 241, 55, 13, 4, 4, 242, 229, 10, 212, 47, 59, 
    243, 44, 13, 209, 42, 199, 203, 18, 37, 3, 244, 220, 
    173, 33, 250, 193, 56, 30, 61, 210, 65, 217, 22, 33, 
    58, 27, 31, 9, 185, 7, 230, 49, 212, 21, 222, 191, 
    26, 7, 45, 203, 240, 201, 12, 218, 169, 223, 206, 21, 
    57, 249, 45, 237, 40, 20, 33, 49, 220, 34, 17, 17, 
    197, 64, 54, 228, 29, 63, 216, 8, 204, 14, 70, 255, 
    187, 248, 190, 224, 228, 209, 254, 194, 70, 9, 70, 200, 
    198, 15, 253, 1, 36, 41, 199, 235, 188, 222, 3, 65, 
    243, 17, 47, 187, 51, 219, 51, 228, 51, 10, 195, 59, 
    195, 52, 24, 25, 9, 255, 5, 206, 211, 249, 243, 198, 
    36, 246, 225, 30, 46, 67, 231, 50, 251, 68, 30, 36, 
    249, 218, 228, 191, 243, 213, 180, 52, 202, 14, 202, 213, 
    219, 55, 233, 175, 210, 252, 5, 229, 53, 201, 227, 225, 
    42, 26, 12, 32, 29, 223, 3, 245, 2, 222, 60, 29, 
    245, 1, 1, 26, 190, 230, 56, 15, 246, 211, 217, 192, 
    228, 48, 26, 0, 53, 38, 41, 8, 217, 244, 35, 226, 
    49, 63, 211, 46, 38, 28, 207, 36, 17, 18, 241, 239, 
    186, 230, 49, 227, 36, 32, 221, 214, 246, 239, 35, 200, 
    232, 246, 29, 240, 238, 148, 6, 129, 198, 150, 60, 54, 
    195, 51, 26, 59, 50, 223, 182, 150, 13, 1, 30, 18, 
    209, 23, 48, 238, 11, 216, 0, 202, 247, 191, 22, 204, 
    218, 185, 240, 17, 36, 232, 253, 224, 41, 218, 224, 210, 
    224, 58, 199, 168, 19, 43, 12, 237, 252, 56, 200, 190, 
    195, 201, 184, 250, 175, 7, 190, 224, 58, 202, 1, 218, 
    29, 175, 197, 18, 251, 226, 242, 2, 226, 10, 13, 202, 
    227, 33, 250, 183, 15, 206, 219, 172, 182, 211, 30, 216, 
    252, 232, 10, 203, 234, 206, 30, 29, 207, 158, 8, 34, 
    53, 236, 37, 251, 62, 1, 236, 177, 206, 34, 247, 193, 
    215, 184, 206, 204, 56, 25, 211, 22, 254, 225, 243, 211, 
    219, 215, 38, 254, 223, 245, 182, 60, 49, 188, 241, 25, 
    218, 37, 19, 215, 254, 247, 225, 198, 222, 3, 178, 67, 
    234, 211, 224, 59, 189, 10, 44, 148, 55, 195, 228, 17, 
    36, 208, 209, 207, 187, 41, 7, 46, 62, 26, 7, 15, 
    9, 57, 169, 196, 26, 184, 31, 195, 7, 203, 29, 39, 
    10, 1, 54, 219, 219, 160, 1, 206, 203, 193, 37, 241, 
    42, 40, 205, 242, 67, 215, 52, 189, 248, 199, 211, 1, 
    254, 12, 30, 59, 43, 224, 5, 224, 9, 236, 236, 130, 
    8, 158, 73, 144, 43, 0, 203, 41, 10, 3, 240, 217, 
    17, 44, 230, 174, 224, 56, 241, 204, 218, 252, 233, 17, 
    14, 57, 249, 26, 232, 57, 48, 210, 204, 23, 9, 207, 
    253, 250, 51, 22, 209, 241, 38, 251, 245, 226, 40, 229, 
    192, 53, 174, 253, 244, 222, 53, 54, 251, 65, 253, 75, 
    212, 203, 205, 224, 54, 219, 29, 226, 8, 198, 58, 217, 
    159, 53, 180, 72, 247, 242, 177, 20, 242, 158, 108, 150, 
    7, 173, 169, 202, 243, 244, 223, 250, 201, 129, 47, 203, 
    141, 185, 136, 170, 212, 215, 134, 60, 221, 253, 223, 208, 
    29, 69, 239, 19, 64, 35, 176, 249, 233, 177, 78, 60, 
    212, 146, 36, 177, 246, 201, 82, 105, 209, 85, 62, 59, 
    189, 191, 230, 211, 85, 148, 146, 26, 17, 245, 61, 173, 
    181, 235, 101, 42, 150, 33, 244, 165, 4, 243, 202, 93, 
    214, 190, 144, 201, 12, 72, 167, 233, 62, 154, 7, 230, 
    199, 249, 140, 79, 1, 163, 77, 147, 103, 93, 11, 18, 
    232, 85, 237, 205, 214, 188, 135, 1, 97, 43, 227, 65, 
    236, 111, 160, 51, 36, 243, 234, 202, 245, 56, 38, 153, 
    161, 227, 37, 225, 99, 68, 173, 91, 50, 182, 96, 209, 
    143, 252, 240, 179, 165, 204, 228, 159, 8, 169, 223, 61, 
    248, 46, 5, 36, 222, 33, 89, 4, 72, 151, 87, 212, 
    46, 156, 199, 233, 12, 13, 48, 223, 2, 136, 146, 21, 
    225, 160, 220, 84, 192, 67, 153, 236, 150, 23, 155, 238, 
    47, 26, 79, 141, 39, 60, 250, 205, 58, 40, 56, 192, 
    185, 32, 170, 50, 206, 62, 143, 110, 54, 225, 245, 103, 
    173, 194, 98, 94, 220, 245, 165, 184, 251, 66, 185, 247, 
    36, 198, 239, 184, 30, 185, 149, 88, 255, 222, 217, 232, 
    3, 198, 9, 115, 44, 173, 219, 204, 212, 58, 22, 10, 
    77, 163, 199, 32, 230, 173, 216, 37, 177, 154, 190, 82, 
    43, 249, 19, 114, 162, 183, 240, 177, 29, 9, 205, 58, 
    2, 144, 143, 183, 229, 33, 13, 35, 182, 232, 96, 67, 
    233, 44, 167, 237, 159, 37, 65, 202, 23, 203, 19, 203, 
    226, 197, 183, 215, 79, 233, 28, 50, 184, 71, 229, 24, 
    50, 93, 148, 56, 164, 100, 137, 244, 204, 159, 184, 157, 
    99, 152, 252, 156, 54, 27, 22, 143, 5, 89, 213, 251, 
    22, 29, 191, 174, 90, 130, 99, 205, 11, 28, 198, 85, 
    29, 94, 195, 243, 38, 65, 238, 168, 171, 143, 190, 203, 
    216, 189, 31, 171, 87, 94, 26, 46, 245, 152, 184, 20, 
    116, 229, 101, 9, 184, 245, 161, 212, 3, 228, 210, 3, 
    230, 69, 163, 168, 183, 158, 20, 193, 251, 238, 146, 181, 
    30, 185, 8, 85, 62, 52, 74, 88, 216, 12, 84, 220, 
    194, 61, 95, 18, 40, 171, 65, 239, 57, 143, 161, 190, 
    194, 249, 41, 142, 8, 59, 153, 43, 249, 160, 14, 34, 
    246, 218, 198, 172, 249, 161, 77, 185, 81, 47, 7, 244, 
    167, 160, 212, 175, 83, 166, 207, 186, 135, 35, 245, 73, 
    211, 211, 241, 136, 155, 211, 164, 217, 10, 158, 153, 169, 
    65, 45, 29, 90, 61, 6, 140, 136, 147, 139, 5, 240, 
    95, 77, 153, 83, 34, 129, 223, 95, 150, 241, 198, 183, 
    67, 194, 91, 225, 254, 86, 141, 139, 29, 75, 189, 148, 
    216, 145, 88, 223, 156, 2, 161, 204, 219, 51, 32, 81, 
    232, 48, 76, 88, 162, 47, 42, 22, 158, 159, 148, 145, 
    91, 241, 56, 174, 178, 247, 10, 14, 47, 190, 61, 2, 
    204, 177, 216, 62, 167, 69, 168, 23, 204, 87, 50, 2, 
    28, 72, 43, 24, 31, 211, 174, 145, 214, 253, 183, 39, 
    164, 102, 162, 93, 76, 36, 8, 31, 73, 239, 20, 33, 
    202, 196, 43, 253, 36, 241, 12, 105, 82, 62, 244, 15, 
    196, 210, 59, 57, 220, 194, 43, 230, 249, 25, 76, 30, 
    238, 236, 56, 237, 213, 6, 251, 249, 23, 40, 205, 22, 
    17, 188, 14, 90, 59, 44, 216, 48, 194, 5, 247, 84, 
    249, 250, 15, 243, 238, 204, 82, 85, 20, 214, 24, 37, 
    54, 226, 192, 249, 40, 245, 207, 34, 13, 4, 214, 96, 
    124, 242, 191, 46, 16, 159, 51, 14, 189, 216, 246, 48, 
    216, 239, 22, 49, 245, 3, 29, 39, 244, 37, 171, 202, 
    33, 254, 205, 202, 233, 203, 32, 72, 41, 13, 14, 40, 
    13, 17, 247, 13, 203, 3, 43, 221, 12, 238, 202, 127, 
    2, 31, 42, 18, 215, 214, 180, 188, 205, 249, 193, 25, 
    220, 1, 61, 124, 82, 216, 244, 224, 185, 36, 18, 39, 
    250, 2, 197, 198, 47, 21, 32, 14, 205, 253, 10, 2, 
    41, 11, 177, 215, 7, 24, 29, 62, 3, 31, 46, 82, 
    17, 39, 14, 15, 199, 177, 197, 40, 247, 18, 247, 235, 
    19, 243, 185, 25, 200, 8, 233, 240, 243, 13, 200, 207, 
    192, 212, 11, 226, 36, 28, 38, 80, 62, 187, 240, 242, 
    199, 60, 230, 68, 67, 209, 220, 226, 56, 252, 25, 106, 
    236, 47, 200, 35, 204, 33, 30, 247, 201, 48, 24, 52, 
    203, 236, 32, 116, 62, 19, 177, 207, 1, 49, 32, 69, 
    244, 212, 234, 228, 5, 21, 254, 82, 235, 46, 44, 211, 
    222, 56, 191, 179, 211, 21, 14, 33, 250, 193, 200, 42, 
    92, 0, 205, 36, 9, 35, 207, 56, 8, 4, 31, 252, 
    88, 253, 71, 78, 195, 7, 228, 225, 37, 20, 252, 48, 
    241, 59, 32, 26, 62, 57, 213, 51, 66, 32, 64, 210, 
    228, 89, 193, 208, 66, 222, 49, 252, 224, 23, 240, 9, 
    255, 72, 19, 8, 34, 252, 197, 75, 55, 33, 73, 26, 
    235, 2, 26, 8, 242, 38, 49, 201, 226, 82, 30, 43, 
    55, 55, 56, 232, 2, 239, 226, 67, 237, 89, 54, 221, 
    63, 66, 195, 11, 226, 18, 61, 51, 213, 27, 245, 80, 
    109, 185, 15, 242, 52, 40, 30, 27, 84, 241, 245, 225, 
    36, 78, 253, 107, 191, 86, 65, 76, 66, 234, 46, 61, 
    219, 24, 10, 48, 51, 34, 11, 83, 0, 199, 237, 252, 
    8, 18, 226, 61, 77, 230, 3, 35, 15, 41, 66, 67, 
    13, 246, 49, 58, 7, 224, 77, 11, 223, 6, 252, 249, 
    59, 229, 6, 253, 17, 247, 233, 18, 74, 52, 25, 68, 
    31, 11, 9, 208, 79, 15, 47, 52, 67, 21, 46, 50, 
    179, 239, 235, 10, 58, 64, 34, 194, 46, 255, 16, 3, 
    127, 19, 218, 240, 85, 35, 229, 12, 208, 47, 64, 236, 
    215, 44, 232, 7, 197, 14, 207, 28, 194, 228, 201, 242, 
    244, 66, 201, 183, 66, 10, 239, 103, 251, 227, 86, 231, 
    217, 93, 211, 246, 229, 57, 11, 82, 30, 28, 225, 240, 
    4, 9, 78, 68, 224, 236, 50, 248, 53, 251, 250, 235, 
    232, 243, 39, 78, 68, 58, 33, 208, 90, 248, 74, 189, 
    0, 90, 215, 54, 103, 14, 197, 36, 206, 98, 74, 90, 
    214, 21, 215, 40, 71, 29, 221, 236, 248, 60, 65, 15, 
    117, 46, 68, 201, 241, 64, 33, 247, 39, 200, 232, 250, 
    16, 74, 34, 2, 213, 236, 27, 26, 217, 27, 78, 216, 
    0, 6, 38, 250, 204, 61, 29, 22, 197, 226, 224, 37, 
    9, 14, 32, 218, 250, 15, 244, 38, 20, 26, 209, 184, 
    198, 72, 17, 53, 44, 20, 17, 200, 21, 210, 228, 208, 
    5, 81, 52, 252, 194, 248, 78, 211, 254, 232, 46, 3, 
    16, 35, 244, 55, 99, 226, 139, 12, 217, 60, 40, 62, 
    34, 10, 62, 193, 3, 210, 248, 204, 2, 50, 230, 254, 
    169, 48, 15, 4, 53, 39, 5, 212, 22, 242, 36, 253, 
    17, 26, 171, 246, 192, 82, 64, 39, 14, 18, 52, 199, 
    49, 253, 10, 238, 245, 50, 252, 244, 149, 251, 219, 28, 
    247, 20, 238, 219, 14, 68, 18, 51, 4, 50, 173, 191, 
    220, 19, 32, 35, 219, 242, 21, 239, 228, 10, 36, 226, 
    239, 48, 18, 247, 210, 26, 14, 252, 23, 234, 232, 187, 
    66, 73, 7, 43, 95, 53, 175, 29, 178, 76, 45, 45, 
    45, 60, 62, 206, 42, 13, 23, 238, 15, 80, 229, 22, 
    136, 221, 86, 195, 48, 42, 220, 232, 20, 38, 40, 78, 
    27, 22, 206, 33, 209, 18, 47, 13, 58, 28, 250, 187, 
    34, 251, 252, 207, 29, 238, 50, 9, 221, 245, 1, 196, 
    43, 225, 21, 156, 38, 30, 44, 41, 32, 51, 144, 167, 
    224, 79, 5, 12, 237, 28, 48, 147, 31, 16, 237, 245, 
    255, 77, 45, 206, 243, 39, 86, 249, 54, 30, 38, 156, 
    67, 29, 25, 69, 87, 54, 134, 3, 220, 68, 39, 229, 
    18, 254, 3, 167, 237, 241, 1, 1, 243, 78, 47, 22, 
    169, 219, 0, 250, 1, 6, 23, 178, 63, 73, 67, 37, 
    75, 41, 129, 175, 241, 23, 36, 244, 213, 42, 23, 179, 
    16, 9, 26, 36, 20, 240, 29, 44, 44, 0, 241, 11, 
    38, 8, 30, 194, 27, 51, 10, 249, 17, 14, 224, 5, 
    4, 248, 247, 42, 222, 222, 20, 239, 4, 239, 51, 53, 
    231, 13, 43, 35, 68, 18, 235, 232, 30, 252, 6, 21, 
    45, 6, 54, 213, 31, 17, 210, 17, 10, 33, 234, 204, 
    18, 218, 238, 255, 5, 233, 226, 19, 53, 43, 240, 94, 
    56, 33, 212, 14, 235, 252, 208, 241, 227, 254, 46, 252, 
    254, 30, 240, 73, 242, 219, 232, 223, 209, 215, 35, 208, 
    221, 47, 26, 26, 25, 228, 7, 77, 124, 11, 216, 223, 
    33, 241, 235, 10, 234, 200, 220, 43, 21, 42, 199, 34, 
    44, 11, 213, 21, 41, 219, 5, 190, 253, 236, 222, 30, 
    208, 206, 21, 4, 127, 33, 170, 184, 244, 242, 211, 9, 
    231, 1, 14, 246, 194, 232, 239, 13, 254, 27, 38, 196, 
    14, 228, 231, 31, 19, 235, 238, 250, 0, 35, 45, 46, 
    48, 242, 162, 190, 231, 27, 236, 10, 1, 223, 50, 45, 
    1, 16, 255, 254, 32, 224, 14, 31, 230, 58, 46, 254, 
    4, 37, 5, 228, 31, 4, 22, 73, 120, 40, 235, 224, 
    42, 24, 31, 212, 46, 208, 215, 225, 251, 220, 198, 90, 
    220, 14, 54, 248, 219, 242, 21, 6, 35, 16, 45, 250, 
    220, 222, 243, 59, 60, 16, 226, 237, 213, 35, 230, 154, 
    229, 224, 246, 19, 235, 57, 209, 86, 254, 244, 223, 28, 
    40, 8, 249, 51, 249, 217, 29, 24, 36, 24, 43, 10, 
    51, 6, 165, 177, 24, 6, 30, 240, 29, 4, 19, 32, 
    246, 44, 176, 30, 236, 12, 255, 196, 54, 254, 190, 146, 
    235, 28, 58, 25, 2, 247, 53, 27, 5, 247, 224, 1, 
    43, 200, 37, 244, 208, 29, 14, 21, 13, 4, 26, 27, 
    237, 33, 255, 19, 56, 6, 209, 183, 249, 10, 41, 53, 
    233, 237, 48, 34, 245, 21, 176, 8, 209, 31, 192, 27, 
    204, 25, 12, 14, 3, 214, 240, 29, 228, 15, 59, 199, 
    26, 233, 205, 129, 193, 5, 30, 10, 64, 235, 241, 35, 
    83, 52, 194, 34, 233, 233, 239, 8, 30, 3, 45, 37, 
    253, 33, 211, 62, 244, 49, 231, 37, 8, 38, 202, 247, 
    11, 245, 245, 18, 50, 44, 248, 19, 32, 34, 226, 0, 
    20, 59, 214, 57, 50, 30, 238, 213, 43, 211, 255, 43, 
    226, 244, 45, 3, 8, 29, 20, 220, 30, 227, 11, 242, 
    42, 39, 239, 15, 61, 22, 187, 250, 230, 21, 243, 46, 
    201, 29, 9, 39, 205, 235, 225, 27, 3, 216, 21, 3, 
    248, 4, 28, 246, 10, 247, 204, 253, 217, 46, 228, 15, 
    66, 235, 21, 207, 205, 228, 215, 241, 236, 255, 223, 24, 
    242, 214, 252, 46, 12, 30, 37, 27, 14, 43, 38, 186, 
    35, 244, 210, 183, 210, 13, 247, 251, 255, 221, 235, 185, 
    241, 49, 250, 193, 37, 196, 214, 33, 41, 209, 192, 250, 
    250, 236, 224, 30, 230, 236, 54, 248, 227, 236, 45, 195, 
    206, 236, 188, 30, 242, 228, 20, 204, 250, 54, 9, 246, 
    249, 3, 216, 218, 255, 15, 228, 61, 1, 49, 224, 3, 
    191, 0, 42, 172, 208, 253, 10, 231, 211, 218, 254, 47, 
    20, 234, 237, 234, 8, 27, 47, 230, 250, 33, 236, 27, 
    72, 249, 192, 15, 253, 253, 228, 7, 228, 252, 39, 254, 
    235, 209, 3, 222, 11, 47, 27, 57, 56, 235, 12, 243, 
    40, 36, 6, 220, 230, 34, 6, 20, 244, 8, 222, 71, 
    207, 235, 20, 49, 49, 53, 36, 65, 2, 222, 245, 249, 
    247, 250, 19, 102, 73, 254, 161, 229, 252, 1, 55, 251, 
    39, 15, 2, 29, 17, 247, 224, 72, 15, 13, 41, 21, 
    242, 44, 17, 3, 14, 237, 37, 229, 25, 0, 21, 57, 
    100, 13, 201, 40, 59, 10, 4, 197, 11, 4, 15, 231, 
    246, 45, 20, 10, 29, 244, 231, 248, 19, 237, 251, 10, 
    240, 226, 13, 211, 218, 245, 248, 68, 101, 14, 55, 200, 
    41, 25, 233, 239, 232, 42, 26, 6, 7, 248, 36, 71, 
    26, 230, 28, 251, 230, 31, 23, 27, 39, 191, 235, 230, 
    247, 7, 242, 90, 115, 10, 222, 199, 14, 238, 45, 214, 
    19, 49, 231, 25, 246, 14, 23, 58, 4, 34, 6, 6, 
    9, 45, 50, 44, 2, 234, 247, 248, 8, 30, 219, 27, 
    62, 12, 183, 225, 4, 244, 16, 236, 17, 40, 43, 231, 
    10, 228, 236, 33, 42, 52, 4, 56, 223, 12, 53, 6, 
    244, 242, 10, 253, 213, 14, 211, 50, 99, 4, 242, 252, 
    8, 32, 23, 26, 29, 240, 37, 251, 42, 242, 17, 26, 
    40, 250, 247, 249, 24, 36, 13, 32, 248, 219, 12, 8, 
    21, 250, 220, 53, 127, 213, 224, 185, 12, 31, 5, 231, 
    2, 227, 18, 34, 7, 0, 20, 66, 255, 54, 28, 8, 
    222, 47, 18, 22, 29, 209, 2, 219, 248, 15, 231, 83, 
    113, 214, 174, 201, 16, 245, 52, 228, 43, 41, 9, 244, 
    9, 30, 227, 72, 234, 211, 244, 29, 226, 211, 5, 59, 
    55, 66, 225, 241, 36, 67, 58, 218, 175, 183, 58, 44, 
    21, 221, 201, 70, 198, 170, 38, 202, 226, 7, 244, 49, 
    44, 208, 4, 10, 19, 200, 35, 244, 18, 210, 226, 35, 
    72, 8, 234, 201, 25, 201, 64, 82, 208, 205, 204, 241, 
    242, 209, 206, 218, 46, 180, 53, 42, 74, 16, 164, 208, 
    3, 238, 17, 246, 196, 231, 37, 63, 196, 195, 224, 46, 
    206, 223, 255, 0, 7, 42, 224, 89, 210, 170, 178, 30, 
    45, 16, 249, 191, 70, 16, 9, 26, 55, 186, 233, 244, 
    35, 219, 199, 253, 36, 29, 218, 236, 26, 68, 68, 66, 
    242, 196, 232, 246, 18, 206, 203, 223, 61, 225, 51, 252, 
    81, 247, 193, 245, 73, 3, 59, 85, 215, 198, 179, 195, 
    227, 252, 56, 9, 18, 18, 46, 242, 167, 60, 233, 94, 
    75, 173, 206, 50, 234, 49, 74, 19, 65, 188, 208, 223, 
    14, 219, 177, 242, 74, 73, 247, 42, 0, 199, 14, 255, 
    9, 255, 191, 251, 21, 225, 249, 249, 213, 255, 190, 28, 
    204, 173, 253, 215, 4, 27, 52, 243, 215, 58, 15, 238, 
    250, 35, 193, 245, 41, 177, 232, 93, 90, 10, 246, 254, 
    216, 237, 235, 20, 2, 171, 213, 35, 227, 228, 12, 39, 
    198, 50, 178, 224, 46, 207, 207, 167, 40, 253, 53, 16, 
    247, 61, 9, 127, 87, 11, 230, 211, 158, 222, 222, 77, 
    199, 28, 214, 172, 31, 204, 227, 13, 48, 30, 23, 196, 
    66, 27, 226, 2, 227, 0, 231, 19, 69, 209, 16, 253, 
    235, 47, 8, 26, 35, 236, 75, 32, 25, 201, 216, 190, 
    240, 246, 230, 107, 28, 93, 241, 230, 192, 5, 50, 253, 
    14, 58, 64, 39, 190, 228, 21, 6, 222, 253, 5, 19, 
    223, 75, 251, 248, 57, 11, 246, 51, 243, 221, 36, 251, 
    233, 59, 229, 226, 215, 246, 53, 1, 27, 17, 48, 26, 
    22, 49, 214, 12, 202, 242, 81, 188, 42, 236, 31, 215, 
    213, 227, 244, 65, 21, 34, 223, 201, 177, 15, 245, 69, 
    219, 232, 19, 202, 19, 42, 245, 198, 185, 18, 249, 234, 
    129, 223, 10, 31, 54, 67, 24, 3, 235, 57, 244, 17, 
    74, 36, 214, 196, 179, 19, 51, 11, 206, 77, 29, 225, 
    246, 241, 39, 22, 204, 30, 50, 10, 230, 212, 197, 247, 
    233, 34, 229, 24, 219, 49, 245, 25, 33, 65, 9, 249, 
    244, 254, 250, 32, 29, 41, 230, 172, 55, 30, 25, 216, 
    204, 11, 5, 226, 164, 51, 52, 27, 69, 18, 13, 219, 
    234, 49, 21, 0, 88, 41, 252, 36, 174, 241, 242, 35, 
    184, 5, 233, 222, 31, 67, 255, 24, 25, 35, 9, 235, 
    188, 254, 103, 209, 56, 22, 251, 216, 50, 25, 21, 90, 
    45, 247, 231, 212, 249, 246, 22, 226, 2, 37, 228, 177, 
    16, 226, 45, 248, 214, 22, 15, 225, 179, 35, 11, 184, 
    228, 227, 36, 19, 44, 33, 68, 71, 252, 48, 193, 213, 
    168, 47, 40, 74, 210, 69, 225, 212, 245, 64, 2, 20, 
    251, 10, 14, 35, 234, 11, 5, 22, 251, 55, 52, 22, 
    224, 79, 236, 32, 34, 53, 211, 2, 214, 16, 15, 56, 
    31, 235, 225, 240, 229, 236, 82, 234, 23, 53, 209, 220, 
    222, 209, 11, 251, 60, 13, 24, 179, 48, 6, 36, 55, 
    234, 250, 226, 17, 12, 57, 234, 19, 173, 106, 74, 36, 
    199, 72, 82, 221, 13, 101, 206, 77, 1, 0, 191, 235, 
    188, 28, 62, 23, 208, 212, 26, 243, 27, 72, 218, 168, 
    57, 248, 25, 178, 228, 36, 39, 2, 40, 1, 46, 242, 
    43, 9, 28, 6, 51, 67, 248, 58, 228, 178, 245, 17, 
    188, 109, 110, 239, 255, 223, 183, 192, 217, 48, 54, 43, 
    7, 214, 43, 13, 23, 175, 69, 177, 184, 0, 220, 225, 
    77, 204, 201, 255, 193, 38, 28, 228, 11, 100, 99, 91, 
    169, 244, 182, 184, 61, 31, 250, 67, 214, 194, 208, 60, 
    194, 239, 57, 74, 237, 216, 245, 164, 210, 241, 160, 198, 
    48, 65, 245, 214, 249, 102, 41, 43, 196, 79, 215, 71, 
    253, 86, 250, 228, 24, 37, 51, 28, 193, 194, 225, 188, 
    222, 210, 33, 64, 71, 49, 44, 12, 52, 199, 65, 222, 
    37, 205, 42, 12, 216, 58, 160, 37, 155, 214, 97, 236, 
    209, 250, 24, 89, 28, 171, 231, 9, 78, 41, 33, 237, 
    186, 238, 90, 1, 204, 89, 195, 223, 177, 106, 112, 223, 
    65, 221, 155, 210, 224, 11, 119, 68, 240, 59, 106, 28, 
    248, 35, 215, 247, 51, 200, 225, 171, 169, 85, 68, 3, 
    19, 28, 26, 168, 76, 88, 76, 253, 236, 237, 134, 254, 
    199, 86, 202, 183, 201, 61, 201, 212, 67, 9, 247, 172, 
    172, 45, 61, 188, 41, 202, 186, 16, 96, 5, 13, 177, 
    53, 93, 224, 44, 34, 127, 33, 62, 196, 88, 49, 22, 
    73, 109, 42, 75, 250, 58, 84, 216, 252, 101, 72, 52, 
    49, 20, 195, 62, 221, 204, 192, 195, 55, 112, 89, 212, 
    75, 9, 206, 196, 214, 34, 8, 211, 199, 77, 57, 246, 
    26, 38, 235, 218, 60, 239, 209, 18, 222, 60, 239, 208, 
    73, 238, 26, 179, 210, 78, 59, 250, 239, 55, 247, 253, 
    188, 17, 13, 248, 201, 20, 76, 235, 21, 23, 28, 61, 
    63, 89, 67, 148, 151, 237, 225, 10, 248, 30, 31, 14, 
    38, 12, 255, 20, 63, 89, 164, 196, 33, 24, 253, 60, 
    45, 230, 60, 253, 45, 230, 53, 192, 232, 13, 27, 223, 
    197, 247, 61, 170, 82, 232, 202, 13, 37, 251, 50, 33, 
    248, 230, 189, 178, 21, 54, 51, 237, 232, 76, 246, 174, 
    44, 230, 90, 234, 241, 69, 55, 13, 204, 199, 214, 225, 
    28, 252, 19, 228, 7, 9, 27, 86, 69, 64, 159, 195, 
    205, 95, 49, 15, 219, 11, 72, 185, 58, 57, 69, 250, 
    16, 46, 205, 24, 156, 246, 226, 231, 92, 254, 225, 175, 
    42, 28, 68, 69, 38, 41, 178, 5, 231, 82, 3, 4, 
    220, 234, 72, 216, 19, 8, 47, 230, 250, 234, 65, 1, 
    247, 233, 14, 26, 74, 22, 3, 183, 250, 66, 34, 21, 
    227, 73, 220, 197, 10, 49, 68, 61, 200, 56, 73, 218, 
    51, 17, 225, 237, 37, 68, 46, 222, 199, 56, 230, 176, 
    16, 75, 210, 214, 44, 8, 1, 243, 13, 19, 191, 188, 
    252, 27, 236, 38, 23, 227, 255, 190, 5, 23, 54, 227, 
    45, 252, 214, 223, 196, 223, 237, 34, 6, 51, 240, 245, 
    56, 99, 15, 247, 79, 6, 129, 12, 192, 230, 33, 227, 
    40, 217, 255, 207, 191, 217, 0, 9, 7, 77, 223, 185, 
    17, 59, 6, 216, 50, 12, 227, 147, 74, 93, 77, 81, 
    54, 100, 145, 206, 45, 244, 38, 19, 19, 28, 194, 77, 
    57, 35, 248, 249, 237, 7, 26, 85, 64, 230, 8, 35, 
    220, 195, 41, 89, 228, 29, 219, 215, 248, 191, 7, 14, 
    8, 211, 200, 57, 63, 206, 216, 61, 17, 220, 248, 228, 
    235, 187, 0, 38, 17, 250, 44, 10, 6, 41, 56, 1, 
    224, 194, 227, 186, 27, 254, 100, 3, 61, 16, 229, 58, 
    29, 45, 36, 40, 33, 201, 34, 235, 63, 245, 207, 18, 
    89, 46, 230, 68, 233, 233, 232, 39, 24, 235, 35, 202, 
    26, 205, 47, 1, 254, 45, 217, 41, 19, 46, 187, 15, 
    209, 39, 16, 38, 69, 208, 62, 28, 105, 214, 46, 41, 
    15, 19, 31, 80, 34, 193, 206, 237, 59, 194, 1, 21, 
    36, 210, 30, 13, 34, 247, 198, 54, 237, 44, 10, 64, 
    231, 33, 43, 123, 119, 49, 53, 22, 27, 205, 228, 56, 
    12, 13, 234, 237, 29, 1, 43, 85, 32, 19, 210, 244, 
    28, 20, 233, 79, 8, 197, 213, 52, 250, 227, 36, 127, 
    127, 6, 218, 29, 232, 1, 18, 92, 3, 190, 29, 246, 
    34, 194, 18, 65, 238, 246, 209, 40, 44, 226, 4, 45, 
    249, 46, 218, 36, 250, 246, 24, 105, 108, 30, 0, 72, 
    236, 220, 23, 88, 15, 190, 41, 190, 35, 21, 38, 111, 
    55, 59, 207, 250, 44, 0, 243, 23, 21, 202, 212, 2, 
    62, 224, 232, 77, 92, 41, 27, 51, 222, 1, 45, 104, 
    18, 7, 34, 244, 230, 21, 38, 103, 6, 232, 204, 4, 
    244, 54, 54, 21, 210, 228, 190, 227, 15, 235, 43, 118, 
    95, 47, 216, 235, 7, 15, 24, 69, 12, 228, 228, 8, 
    5, 2, 37, 50, 56, 75, 208, 53, 206, 5, 18, 226, 
    53, 2, 49, 28, 227, 33, 43, 211, 194, 217, 230, 45, 
    241, 255, 50, 29, 74, 211, 55, 241, 41, 5, 252, 79, 
    30, 82, 39, 1, 7, 56, 64, 28, 26, 8, 47, 21, 
    44, 8, 233, 248, 53, 4, 10, 24, 69, 44, 241, 52, 
    231, 72, 17, 47, 62, 216, 252, 71, 18, 5, 212, 76, 
    221, 33, 76, 73, 248, 207, 22, 33, 205, 62, 191, 47, 
    11, 243, 26, 213, 246, 254, 12, 43, 47, 65, 6, 234, 
    68, 208, 236, 73, 250, 254, 33, 98, 250, 246, 234, 19, 
    214, 9, 27, 239, 30, 69, 213, 15, 16, 57, 34, 252, 
    49, 15, 231, 239, 84, 75, 42, 224, 90, 11, 49, 36, 
    238, 45, 45, 19, 223, 12, 10, 31, 211, 255, 51, 16, 
    231, 243, 53, 16, 206, 252, 76, 35, 68, 254, 33, 22, 
    29, 22, 31, 5, 76, 242, 252, 3, 55, 67, 215, 93, 
    198, 94, 32, 28, 229, 226, 67, 13, 228, 11, 213, 49, 
    229, 208, 107, 232, 53, 13, 44, 202, 23, 35, 216, 53, 
    96, 0, 79, 0, 15, 36, 16, 251, 186, 1, 71, 33, 
    249, 35, 69, 192, 191, 21, 8, 229, 42, 41, 52, 217, 
    6, 70, 28, 44, 21, 0, 23, 220, 91, 31, 93, 1, 
    226, 93, 212, 255, 184, 22, 18, 7, 254, 241, 238, 209, 
    225, 52, 27, 15, 38, 225, 127, 49, 40, 10, 4, 250, 
    237, 61, 4, 252, 23, 51, 53, 236, 84, 59, 229, 30, 
    236, 24, 64, 41, 10, 223, 76, 228, 31, 58, 37, 58, 
    193, 27, 112, 33, 18, 44, 14, 81, 236, 51, 244, 222, 
    52, 234, 13, 62, 219, 18, 195, 102, 233, 60, 216, 189, 
    50, 213, 225, 243, 219, 233, 0, 177, 174, 32, 216, 240, 
    13, 15, 69, 254, 50, 93, 217, 207, 27, 1, 167, 83, 
    171, 18, 228, 75, 224, 98, 25, 131, 242, 36, 59, 45, 
    209, 1, 211, 38, 183, 56, 12, 66, 216, 239, 5, 16, 
    45, 219, 201, 73, 63, 206, 10, 50, 172, 37, 50, 43, 
    171, 47, 47, 213, 230, 11, 203, 209, 16, 47, 191, 227, 
    214, 248, 110, 209, 29, 39, 25, 193, 253, 231, 243, 30, 
    11, 73, 231, 253, 246, 93, 13, 34, 14, 62, 232, 228, 
    44, 208, 82, 4, 228, 98, 16, 61, 145, 42, 36, 224, 
    220, 2, 226, 26, 92, 32, 83, 47, 48, 16, 173, 21, 
    53, 40, 7, 75, 35, 222, 86, 244, 40, 42, 242, 3, 
    215, 83, 221, 209, 195, 191, 241, 248, 80, 90, 57, 250, 
    20, 77, 28, 70, 49, 200, 234, 210, 33, 25, 13, 48, 
    57, 62, 16, 135, 239, 209, 211, 236, 34, 61, 199, 47, 
    129, 197, 116, 11, 31, 63, 194, 212, 47, 50, 7, 12, 
    44, 244, 170, 14, 226, 40, 6, 206, 191, 231, 251, 11, 
    4, 87, 241, 0, 252, 19, 39, 192, 188, 25, 227, 205, 
    97, 13, 51, 31, 5, 231, 68, 245, 0, 70, 28, 171, 
    255, 109, 38, 235, 173, 24, 65, 50, 43, 7, 238, 47, 
    212, 222, 188, 249, 181, 234, 86, 31, 12, 32, 7, 217, 
    14, 23, 222, 21, 41, 26, 157, 36, 66, 107, 46, 238, 
    185, 99, 28, 166, 0, 6, 29, 255, 200, 94, 181, 193, 
    189, 56, 21, 195, 43, 81, 8, 11, 251, 246, 10, 251, 
    82, 43, 220, 202, 236, 77, 194, 48, 185, 148, 77, 197, 
    146, 157, 24, 42, 151, 42, 26, 224, 253, 151, 160, 46, 
    236, 190, 250, 225, 167, 184, 141, 78, 185, 56, 209, 226, 
    251, 79, 7, 66, 149, 154, 203, 25, 204, 188, 146, 22, 
    70, 69, 35, 16, 190, 189, 186, 151, 237, 57, 72, 193, 
    245, 154, 27, 38, 86, 163, 215, 21, 143, 237, 150, 137, 
    78, 51, 207, 196, 7, 188, 244, 152, 74, 207, 2, 86, 
    68, 190, 182, 40, 148, 26, 242, 185, 31, 177, 164, 205, 
    211, 240, 28, 152, 152, 176, 166, 150, 35, 211, 230, 202, 
    167, 250, 8, 52, 183, 61, 241, 246, 28, 185, 227, 17, 
    57, 60, 208, 68, 155, 6, 220, 167, 217, 205, 160, 197, 
    156, 177, 224, 220, 188, 237, 33, 71, 166, 14, 67, 167, 
    197, 162, 178, 180, 0, 192, 9, 2, 3, 158, 152, 81, 
    228, 199, 54, 185, 232, 11, 73, 246, 23, 174, 55, 196, 
    191, 36, 51, 248, 240, 156, 226, 227, 245, 152, 164, 20, 
    30, 190, 184, 86, 184, 208, 147, 155, 198, 47, 42, 20, 
    236, 136, 210, 162, 86, 5, 32, 24, 13, 36, 13, 10, 
    175, 185, 63, 230, 71, 69, 1, 30, 60, 59, 35, 194, 
    11, 129, 155, 206, 246, 213, 205, 206, 201, 8, 170, 165, 
    79, 20, 25, 144, 201, 79, 252, 186, 55, 164, 95, 83, 
    38, 254, 205, 237, 200, 227, 174, 150, 45, 65, 170, 42, 
    66, 232, 189, 52, 105, 243, 35, 181, 73, 59, 204, 237, 
    7, 233, 53, 187, 206, 233, 200, 235, 47, 246, 27, 49, 
    17, 52, 209, 6, 60, 31, 208, 8, 52, 223, 16, 33, 
    253, 212, 21, 20, 233, 242, 27, 53, 188, 243, 223, 245, 
    196, 192, 244, 16, 235, 223, 24, 168, 129, 187, 54, 220, 
    56, 255, 5, 8, 27, 190, 38, 49, 114, 223, 39, 221, 
    34, 208, 177, 225, 192, 53, 231, 21, 252, 47, 214, 240, 
    48, 205, 45, 160, 193, 210, 234, 68, 29, 82, 22, 13, 
    58, 42, 255, 32, 59, 210, 31, 178, 224, 52, 48, 240, 
    206, 25, 66, 36, 250, 52, 205, 236, 218, 220, 231, 187, 
    203, 220, 52, 50, 46, 234, 47, 208, 244, 237, 49, 29, 
    4, 197, 16, 180, 78, 33, 8, 229, 224, 3, 59, 247, 
    246, 9, 53, 10, 246, 255, 60, 212, 34, 236, 27, 83, 
    40, 245, 69, 94, 15, 233, 241, 3, 15, 17, 41, 178, 
    21, 223, 200, 229, 197, 212, 52, 70, 67, 55, 8, 197, 
    238, 239, 45, 1, 222, 31, 62, 58, 3, 79, 18, 19, 
    212, 191, 247, 58, 223, 11, 110, 166, 255, 201, 35, 235, 
    6, 243, 13, 228, 242, 220, 53, 249, 201, 226, 199, 252, 
    23, 20, 230, 235, 19, 201, 218, 65, 229, 41, 234, 28, 
    42, 39, 31, 250, 33, 222, 242, 1, 34, 232, 15, 247, 
    200, 188, 244, 243, 224, 52, 40, 225, 226, 52, 7, 244, 
    183, 211, 3, 235, 43, 185, 8, 16, 8, 253, 19, 158, 
    87, 65, 56, 43, 72, 210, 243, 239, 200, 236, 182, 52, 
    39, 221, 65, 210, 165, 46, 26, 5, 47, 242, 253, 71, 
    208, 219, 186, 247, 50, 189, 93, 158, 242, 218, 67, 33, 
    67, 16, 194, 224, 37, 218, 240, 235, 249, 26, 64, 174, 
    12, 16, 24, 67, 220, 214, 37, 248, 35, 237, 17, 238, 
    16, 187, 73, 161, 45, 29, 233, 236, 33, 14, 234, 38, 
    248, 39, 15, 230, 189, 233, 41, 1, 225, 38, 234, 248, 
    186, 223, 71, 64, 54, 4, 23, 247, 229, 228, 108, 253, 
    253, 209, 249, 61, 254, 13, 247, 77, 65, 233, 247, 240, 
    201, 47, 28, 19, 173, 27, 229, 50, 253, 224, 246, 102, 
    0, 226, 201, 248, 49, 22, 71, 217, 87, 44, 188, 240, 
    2, 20, 206, 14, 238, 14, 217, 31, 21, 3, 196, 176, 
    168, 192, 36, 0, 26, 29, 244, 36, 17, 19, 184, 216, 
    244, 189, 50, 253, 29, 187, 43, 4, 234, 1, 31, 55, 
    223, 204, 231, 48, 236, 221, 64, 183, 34, 36, 254, 58, 
    1, 232, 248, 104, 196, 16, 244, 47, 182, 230, 69, 245, 
    252, 243, 211, 23, 32, 25, 194, 28, 235, 251, 251, 43, 
    217, 205, 24, 202, 5, 223, 46, 1, 223, 32, 53, 93, 
    229, 222, 9, 15, 255, 12, 77, 35, 83, 202, 26, 243, 
    5, 22, 207, 25, 244, 207, 215, 246, 222, 216, 206, 230, 
    32, 246, 234, 25, 177, 216, 226, 252, 8, 217, 38, 208, 
    207, 30, 14, 192, 49, 49, 203, 246, 43, 195, 40, 94, 
    23, 38, 233, 65, 66, 2, 80, 16, 6, 11, 47, 127, 
    8, 11, 15, 54, 25, 12, 250, 246, 15, 254, 112, 232, 
    89, 6, 9, 70, 65, 21, 44, 33, 24, 16, 23, 76, 
    71, 5, 53, 40, 62, 39, 36, 68, 250, 203, 62, 40, 
    233, 20, 188, 33, 227, 222, 52, 252, 3, 19, 221, 70, 
    231, 217, 190, 235, 77, 232, 231, 250, 7, 215, 235, 232, 
    58, 213, 247, 30, 210, 195, 11, 90, 33, 8, 207, 30, 
    233, 26, 96, 228, 248, 252, 250, 129, 82, 50, 251, 195, 
    39, 73, 46, 216, 244, 137, 75, 182, 2, 58, 161, 21, 
    166, 185, 99, 16, 100, 219, 149, 170, 251, 29, 8, 140, 
    43, 242, 161, 254, 228, 152, 9, 194, 5, 86, 222, 236, 
    30, 237, 67, 251, 247, 45, 245, 132, 205, 161, 193, 237, 
    34, 210, 25, 196, 241, 161, 67, 226, 161, 170, 74, 35, 
    71, 70, 181, 63, 39, 244, 225, 216, 244, 255, 184, 25, 
    200, 65, 220, 27, 186, 214, 53, 58, 253, 70, 218, 202, 
    169, 206, 61, 219, 53, 199, 243, 27, 0, 40, 197, 173, 
    239, 201, 40, 189, 209, 7, 194, 94, 211, 69, 245, 135, 
    211, 105, 73, 181, 180, 191, 233, 31, 43, 30, 45, 86, 
    16, 22, 9, 171, 166, 173, 153, 173, 77, 249, 5, 9, 
    160, 40, 202, 240, 234, 22, 226, 29, 209, 73, 35, 155, 
    40, 249, 43, 229, 60, 184, 203, 169, 27, 29, 14, 142, 
    245, 155, 19, 229, 81, 173, 154, 202, 106, 232, 82, 212, 
    18, 173, 251, 72, 48, 254, 81, 40, 102, 53, 156, 1, 
    170, 172, 173, 33, 156, 28, 246, 162, 206, 3, 34, 186, 
    4, 78, 196, 167, 88, 247, 1, 231, 171, 190, 241, 55, 
    172, 165, 92, 202, 95, 43, 72, 10, 168, 47, 174, 34, 
    8, 53, 162, 170, 173, 11, 96, 21, 82, 58, 7, 66, 
    168, 157, 7, 63, 99, 38, 22, 235, 177, 245, 187, 15, 
    158, 224, 150, 170, 45, 65, 6, 55, 183, 26, 88, 0, 
    249, 216, 49, 191, 17, 72, 202, 245, 51, 81, 244, 35, 
    202, 63, 27, 180, 213, 188, 107, 68, 160, 132, 35, 165, 
    159, 61, 1, 229, 203, 175, 47, 1, 81, 187, 219, 65, 
    2, 61, 226, 71, 89, 211, 31, 72, 225, 27, 37, 74, 
    192, 37, 8, 67, 255, 192, 12, 91, 253, 1, 50, 255, 
    73, 149, 15, 235, 232, 39, 233, 70, 211, 233, 4, 199, 
    44, 76, 18, 52, 223, 12, 206, 250, 49, 51, 55, 91, 
    185, 247, 58, 88, 155, 252, 27, 235, 205, 192, 89, 11, 
    1, 225, 68, 255, 80, 191, 25, 101, 48, 176, 52, 31, 
    51, 3, 25, 8, 53, 229, 14, 71, 35, 0, 75, 64, 
    243, 23, 66, 239, 76, 227, 223, 219, 240, 158, 186, 233, 
    211, 192, 50, 66, 92, 188, 80, 8, 244, 206, 234, 56, 
    215, 191, 30, 127, 38, 201, 30, 212, 16, 213, 39, 39, 
    217, 163, 227, 168, 222, 47, 63, 106, 197, 254, 180, 17, 
    105, 67, 55, 36, 250, 78, 206, 23, 13, 34, 26, 119, 
    241, 45, 35, 85, 181, 43, 101, 7, 20, 222, 58, 184, 
    239, 204, 224, 255, 198, 34, 201, 89, 79, 232, 95, 38, 
    7, 200, 255, 252, 190, 220, 234, 43, 2, 41, 245, 50, 
    8, 233, 248, 64, 197, 170, 235, 183, 76, 247, 251, 1, 
    68, 74, 199, 35, 242, 36, 202, 208, 51, 99, 49, 244, 
    236, 254, 226, 68, 42, 222, 245, 69, 0, 14, 88, 18, 
    6, 252, 82, 161, 59, 175, 162, 225, 247, 2, 11, 95, 
    84, 219, 38, 9, 59, 71, 22, 43, 41, 220, 181, 98, 
    43, 203, 11, 191, 199, 182, 21, 66, 30, 249, 39, 30, 
    217, 37, 228, 89, 25, 73, 7, 13, 83, 55, 253, 34, 
    5, 83, 137, 76, 231, 11, 27, 115, 54, 241, 65, 59, 
    166, 225, 125, 197, 2, 46, 183, 221, 1, 74, 248, 89, 
    1, 195, 228, 12, 17, 247, 9, 19, 244, 201, 59, 199, 
    69, 2, 238, 10, 253, 208, 54, 220, 13, 234, 178, 216, 
    196, 230, 1, 52, 219, 188, 193, 33, 200, 230, 251, 212, 
    225, 39, 177, 230, 233, 10, 61, 203, 186, 207, 64, 65, 
    20, 72, 228, 65, 10, 246, 14, 3, 46, 217, 27, 211, 
    230, 176, 209, 127, 180, 49, 243, 29, 185, 65, 22, 39, 
    58, 233, 36, 199, 54, 243, 238, 211, 174, 44, 225, 71, 
    60, 236, 53, 241, 185, 23, 189, 239, 183, 254, 196, 226, 
    234, 206, 237, 193, 12, 181, 31, 235, 31, 0, 53, 12, 
    5, 41, 199, 8, 12, 242, 222, 211, 28, 197, 186, 212, 
    10, 231, 209, 70, 184, 53, 253, 95, 64, 212, 78, 51, 
    8, 10, 240, 174, 60, 47, 254, 251, 189, 57, 168, 66, 
    23, 32, 174, 47, 200, 31, 16, 7, 10, 26, 48, 188, 
    199, 214, 2, 94, 178, 223, 251, 60, 213, 245, 217, 219, 
    178, 52, 210, 24, 12, 37, 238, 182, 6, 194, 223, 213, 
    246, 205, 56, 187, 182, 61, 210, 1, 3, 71, 50, 0, 
    164, 199, 169, 254, 42, 6, 193, 39, 31, 192, 227, 190, 
    174, 25, 197, 199, 254, 244, 214, 208, 55, 23, 202, 223, 
    223, 206, 231, 38, 2, 45, 229, 35, 198, 230, 229, 3, 
    12, 6, 18, 39, 37, 180, 235, 45, 33, 192, 56, 192, 
    34, 7, 50, 71, 57, 10, 34, 21, 171, 184, 51, 197, 
    234, 250, 194, 242, 183, 29, 192, 235, 31, 55, 229, 217, 
    210, 191, 0, 238, 60, 84, 38, 194, 54, 233, 51, 31, 
    191, 210, 33, 246, 255, 23, 90, 19, 39, 180, 180, 241, 
    132, 215, 26, 185, 99, 94, 165, 33, 107, 147, 90, 17, 
    73, 37, 131, 64, 166, 189, 207, 137, 242, 202, 179, 237, 
    54, 215, 209, 26, 179, 37, 25, 6, 187, 105, 255, 233, 
    153, 240, 174, 130, 49, 249, 232, 98, 16, 210, 228, 20, 
    6, 234, 39, 207, 61, 2, 95, 45, 18, 14, 206, 218, 
    204, 189, 29, 66, 25, 221, 247, 24, 82, 231, 154, 138, 
    67, 215, 248, 211, 107, 159, 239, 78, 179, 12, 208, 85, 
    211, 74, 95, 9, 187, 81, 56, 101, 187, 39, 214, 156, 
    167, 178, 185, 51, 29, 193, 30, 140, 251, 65, 151, 33, 
    148, 64, 40, 242, 145, 232, 226, 51, 217, 87, 103, 148, 
    205, 16, 210, 61, 214, 212, 239, 223, 216, 182, 54, 214, 
    164, 100, 205, 37, 104, 201, 234, 95, 61, 238, 189, 229, 
    141, 247, 159, 248, 98, 129, 210, 140, 150, 35, 32, 70, 
    82, 70, 178, 91, 222, 17, 196, 185, 132, 0, 16, 224, 
    22, 155, 90, 36, 2, 54, 202, 132, 75, 223, 164, 81, 
    180, 23, 94, 214, 27, 36, 64, 155, 96, 251, 241, 169, 
    74, 38, 86, 245, 77, 66, 251, 19, 35, 134, 251, 143, 
    158, 198, 37, 191, 250, 10, 37, 229, 213, 69, 220, 79, 
    217, 37, 42, 106, 197, 194, 28, 49, 246, 152, 240, 82, 
    243, 8, 198, 53, 162, 133, 47, 35, 181, 50, 203, 223, 
    159, 77, 203, 227, 102, 16, 172, 10, 224, 38, 60, 205, 
    25, 245, 147, 28, 144, 50, 179, 247, 203, 97, 252, 226, 
    2, 23, 242, 69, 19, 28, 50, 243, 248, 144, 202, 240, 
    83, 49, 175, 164, 20, 163, 41, 0, 60, 158, 186, 89, 
    84, 206, 255, 137, 250, 172, 211, 32, 211, 68, 34, 237, 
    230, 189, 241, 37, 225, 80, 163, 183, 198, 83, 191, 255, 
    83, 66, 148, 253, 175, 143, 176, 43, 62, 2, 246, 166, 
    42, 226, 147, 234, 173, 249, 16, 176, 168, 129, 235, 89, 
    79, 253, 80, 248, 10, 206, 16, 216, 40, 236, 43, 89, 
    49, 33, 73, 48, 208, 158, 163, 54, 232, 79, 27, 227, 
    221, 46, 244, 42, 18, 176, 221, 35, 247, 31, 216, 51, 
    0, 55, 195, 53, 183, 82, 220, 219, 145, 229, 185, 223, 
    166, 54, 29, 235, 229, 154, 239, 233, 52, 5, 154, 235, 
    227, 79, 213, 224, 247, 196, 41, 228, 166, 85, 204, 151, 
    193, 224, 79, 9, 50, 218, 15, 16, 164, 4, 211, 0, 
    205, 4, 146, 235, 222, 46, 169, 138, 231, 80, 170, 200, 
    239, 131, 83, 190, 145, 167, 165, 155, 238, 236, 48, 9, 
    181, 216, 195, 249, 74, 250, 8, 242, 148, 82, 221, 208, 
    142, 13, 160, 239, 130, 52, 238, 63, 165, 62, 59, 131, 
    18, 133, 162, 9, 243, 188, 73, 48, 224, 228, 6, 11, 
    184, 138, 68, 26, 162, 88, 69, 57, 13, 222, 199, 24, 
    53, 157, 31, 184, 185, 204, 74, 56, 206, 136, 51, 90, 
    252, 254, 68, 153, 136, 156, 191, 67, 254, 246, 51, 199, 
    87, 58, 27, 202, 82, 16, 85, 204, 12, 69, 83, 66, 
    50, 15, 255, 232, 37, 186, 207, 191, 193, 223, 132, 234, 
    183, 229, 219, 197, 19, 155, 244, 48, 19, 57, 148, 237, 
    62, 0, 43, 78, 155, 80, 189, 253, 88, 255, 252, 154, 
    176, 150, 155, 176, 16, 207, 255, 219, 39, 216, 217, 64, 
    227, 17, 247, 235, 249, 33, 30, 42, 31, 234, 255, 5, 
    215, 12, 247, 94, 198, 240, 9, 209, 240, 232, 97, 30, 
    45, 197, 237, 2, 27, 253, 198, 69, 245, 3, 36, 45, 
    242, 255, 15, 249, 7, 241, 25, 2, 19, 0, 31, 26, 
    14, 41, 0, 203, 249, 255, 51, 24, 17, 224, 255, 225, 
    35, 15, 243, 32, 11, 251, 28, 37, 1, 215, 237, 27, 
    26, 243, 25, 244, 250, 244, 32, 54, 18, 2, 34, 0, 
    229, 204, 72, 42, 53, 20, 4, 13, 41, 239, 19, 50, 
    8, 245, 3, 231, 236, 238, 46, 34, 242, 34, 222, 52, 
    242, 204, 23, 98, 213, 31, 29, 211, 210, 20, 91, 24, 
    28, 231, 18, 2, 25, 13, 204, 79, 228, 248, 38, 241, 
    47, 9, 50, 222, 14, 38, 228, 33, 240, 242, 9, 79, 
    6, 224, 249, 215, 11, 221, 61, 219, 78, 199, 38, 9, 
    25, 251, 227, 93, 0, 19, 253, 29, 33, 31, 38, 46, 
    49, 255, 214, 63, 204, 25, 239, 82, 31, 17, 216, 12, 
    225, 245, 73, 217, 80, 26, 248, 13, 25, 238, 223, 96, 
    1, 1, 200, 45, 51, 220, 39, 32, 221, 227, 216, 14, 
    242, 0, 242, 78, 8, 32, 244, 231, 18, 232, 60, 19, 
    66, 20, 237, 236, 228, 15, 254, 127, 53, 219, 234, 31, 
    25, 212, 35, 244, 235, 20, 224, 14, 32, 7, 32, 61, 
    39, 215, 206, 31, 208, 2, 68, 242, 7, 214, 248, 238, 
    240, 248, 205, 80, 28, 215, 217, 38, 252, 220, 241, 47, 
    237, 215, 22, 45, 24, 245, 34, 111, 215, 226, 255, 4, 
    229, 246, 126, 234, 57, 218, 38, 210, 211, 229, 214, 108, 
    19, 4, 191, 13, 15, 221, 43, 249, 73, 234, 48, 13, 
    250, 205, 228, 37, 220, 238, 194, 8, 237, 12, 56, 235, 
    226, 212, 191, 246, 2, 36, 195, 0, 29, 204, 228, 57, 
    57, 254, 224, 251, 47, 43, 206, 46, 20, 251, 37, 30, 
    198, 190, 205, 30, 238, 199, 34, 37, 243, 213, 11, 10, 
    35, 195, 209, 81, 21, 225, 213, 228, 43, 24, 253, 19, 
    46, 42, 209, 220, 208, 11, 24, 50, 248, 16, 32, 31, 
    242, 10, 43, 5, 52, 248, 203, 213, 25, 194, 179, 64, 
    18, 220, 30, 6, 55, 210, 227, 55, 69, 30, 219, 44, 
    3, 235, 11, 54, 254, 5, 203, 228, 222, 206, 26, 220, 
    41, 170, 11, 252, 234, 13, 179, 54, 34, 10, 218, 61, 
    221, 239, 35, 22, 234, 48, 203, 61, 2, 28, 235, 35, 
    254, 6, 10, 7, 39, 22, 6, 2, 226, 238, 227, 247, 
    231, 250, 221, 71, 246, 232, 219, 246, 213, 237, 235, 234, 
    222, 213, 212, 237, 5, 221, 65, 35, 233, 37, 238, 19, 
    199, 193, 70, 15, 58, 211, 243, 6, 217, 5, 160, 56, 
    221, 220, 242, 16, 227, 249, 25, 9, 11, 224, 249, 9, 
    219, 221, 30, 52, 208, 240, 199, 237, 215, 210, 74, 198, 
    23, 14, 9, 18, 249, 8, 188, 113, 52, 228, 238, 26, 
    239, 230, 46, 40, 34, 27, 48, 47, 21, 200, 39, 100, 
    11, 15, 3, 12, 232, 35, 65, 222, 231, 248, 235, 249, 
    56, 247, 203, 96, 4, 30, 225, 29, 59, 186, 18, 25, 
    249, 11, 250, 245, 240, 243, 236, 100, 19, 194, 207, 254, 
    249, 213, 127, 221, 30, 236, 35, 193, 237, 36, 221, 232, 
    84, 58, 225, 69, 13, 251, 204, 247, 25, 53, 229, 59, 
    42, 189, 19, 105, 9, 20, 7, 211, 55, 227, 250, 189, 
    207, 39, 4, 254, 251, 250, 174, 76, 211, 29, 206, 23, 
    1, 59, 222, 252, 248, 219, 57, 59, 238, 215, 87, 39, 
    41, 234, 43, 172, 18, 222, 234, 217, 85, 48, 228, 235, 
    79, 18, 233, 12, 52, 60, 42, 226, 75, 68, 231, 200, 
    169, 74, 221, 213, 236, 170, 3, 232, 22, 54, 242, 199, 
    9, 176, 62, 207, 45, 235, 230, 14, 234, 233, 22, 118, 
    3, 31, 63, 16, 34, 244, 76, 187, 69, 252, 251, 215, 
    199, 207, 53, 229, 9, 248, 166, 51, 230, 227, 99, 191, 
    201, 251, 252, 249, 237, 201, 168, 41, 60, 44, 246, 56, 
    247, 178, 6, 14, 54, 83, 53, 46, 174, 12, 79, 56, 
    23, 48, 58, 237, 244, 18, 117, 8, 204, 238, 23, 195, 
    43, 254, 217, 61, 3, 1, 190, 198, 224, 52, 241, 70, 
    188, 239, 214, 254, 12, 55, 26, 3, 67, 180, 221, 189, 
    212, 200, 33, 201, 9, 197, 167, 226, 11, 239, 217, 85, 
    28, 19, 178, 28, 60, 190, 193, 253, 53, 65, 0, 48, 
    232, 231, 65, 7, 207, 5, 6, 249, 189, 15, 62, 236, 
    45, 151, 242, 225, 37, 250, 218, 95, 216, 191, 219, 54, 
    60, 175, 35, 74, 248, 51, 237, 252, 14, 240, 241, 12, 
    69, 215, 211, 170, 9, 47, 240, 68, 88, 158, 54, 36, 
    31, 9, 176, 111, 62, 44, 25, 53, 13, 19, 8, 223, 
    241, 186, 3, 232, 161, 171, 66, 125, 9, 18, 201, 233, 
    196, 195, 127, 45, 56, 17, 66, 37, 12, 237, 42, 54, 
    66, 253, 199, 14, 227, 226, 7, 237, 236, 22, 220, 202, 
    195, 2, 68, 70, 188, 40, 236, 36, 182, 5, 55, 44, 
    224, 37, 59, 60, 32, 202, 222, 114, 73, 250, 194, 205, 
    173, 53, 186, 192, 3, 41, 222, 47, 8, 28, 242, 18, 
    213, 59, 233, 248, 249, 33, 114, 240, 44, 55, 229, 57, 
    226, 221, 30, 43, 218, 213, 235, 171, 187, 20, 21, 46, 
    247, 252, 163, 189, 22, 225, 192, 24, 238, 25, 26, 4, 
    253, 253, 127, 244, 88, 230, 243, 251, 215, 25, 215, 75, 
    197, 48, 226, 15, 20, 75, 180, 223, 76, 6, 8, 205, 
    39, 37, 240, 49, 230, 53, 201, 64, 4, 50, 33, 230, 
    84, 46, 61, 209, 247, 242, 55, 104, 204, 229, 234, 13, 
    177, 72, 199, 34, 5, 255, 144, 77, 209, 56, 254, 82, 
    192, 13, 249, 240, 252, 62, 19, 52, 252, 16, 50, 195, 
    233, 26, 247, 46, 53, 14, 8, 39, 193, 215, 2, 218, 
    127, 193, 146, 43, 67, 41, 30, 73, 232, 2, 64, 47, 
    226, 209, 248, 254, 55, 10, 76, 26, 250, 7, 3, 45, 
    5, 23, 46, 29, 183, 21, 18, 47, 45, 11, 212, 24, 
    56, 195, 64, 58, 240, 226, 23, 218, 14, 10, 50, 54, 
    118, 45, 55, 214, 254, 244, 18, 16, 31, 31, 67, 247, 
    12, 88, 192, 85, 19, 200, 251, 13, 208, 44, 191, 82, 
    37, 26, 43, 212, 233, 40, 121, 84, 18, 19, 235, 58, 
    235, 52, 46, 77, 24, 232, 27, 206, 215, 38, 28, 75, 
    95, 183, 166, 56, 17, 26, 59, 44, 51, 11, 243, 248, 
    246, 39, 102, 31, 204, 12, 254, 31, 24, 76, 113, 173, 
    221, 203, 2, 231, 211, 98, 39, 36, 18, 226, 60, 218, 
    14, 5, 218, 179, 234, 93, 47, 244, 1, 68, 225, 63, 
    236, 39, 10, 76, 241, 226, 40, 187, 241, 211, 51, 211, 
    243, 5, 33, 43, 230, 202, 243, 226, 25, 239, 19, 203, 
    255, 85, 230, 44, 42, 66, 14, 254, 15, 4, 230, 1, 
    12, 73, 74, 47, 45, 201, 29, 27, 237, 83, 14, 25, 
    246, 45, 239, 255, 12, 83, 72, 6, 232, 232, 26, 240, 
    45, 18, 13, 69, 181, 93, 12, 90, 28, 86, 2, 243, 
    16, 52, 38, 18, 221, 96, 182, 221, 9, 38, 31, 226, 
    97, 41, 43, 179, 72, 249, 92, 55, 75, 53, 235, 232, 
    194, 91, 52, 56, 203, 45, 2, 252, 219, 1, 242, 172, 
    217, 74, 248, 248, 240, 249, 35, 16, 74, 62, 68, 147, 
    58, 30, 88, 92, 28, 247, 157, 30, 235, 26, 254, 225, 
    32, 10, 21, 75, 214, 249, 92, 183, 10, 62, 46, 36, 
    21, 249, 29, 10, 17, 253, 1, 202, 21, 32, 28, 73, 
    229, 26, 0, 255, 225, 250, 47, 44, 59, 12, 75, 229, 
    0, 39, 64, 228, 59, 251, 206, 53, 237, 2, 247, 233, 
    67, 36, 57, 145, 55, 11, 27, 56, 92, 67, 162, 229, 
    152, 1, 77, 36, 27, 34, 86, 202, 238, 25, 56, 204, 
    34, 235, 215, 22, 31, 235, 27, 14, 14, 49, 26, 169, 
    90, 79, 235, 108, 80, 88, 129, 50, 215, 16, 239, 26, 
    206, 73, 25, 66, 246, 31, 67, 231, 204, 81, 255, 44, 
    216, 208, 246, 0, 72, 13, 9, 10, 224, 29, 3, 249, 
    246, 21, 240, 55, 29, 202, 169, 205, 46, 234, 47, 252, 
    69, 196, 19, 57, 182, 32, 26, 250, 167, 235, 44, 227, 
    31, 18, 19, 16, 45, 184, 223, 196, 46, 24, 253, 170, 
    69, 188, 230, 32, 186, 250, 247, 72, 251, 226, 17, 2, 
    41, 246, 232, 29, 158, 232, 231, 67, 232, 7, 44, 228, 
    207, 215, 16, 245, 215, 39, 9, 251, 47, 179, 177, 36, 
    251, 27, 229, 255, 203, 230, 32, 5, 12, 54, 174, 237, 
    232, 11, 1, 38, 212, 54, 254, 103, 59, 250, 221, 247, 
    207, 31, 16, 196, 222, 50, 210, 197, 0, 55, 185, 103, 
    63, 17, 43, 252, 7, 219, 4, 246, 29, 0, 246, 42, 
    57, 48, 227, 75, 245, 198, 250, 202, 43, 4, 13, 28, 
    36, 51, 200, 23, 212, 198, 180, 33, 16, 72, 14, 234, 
    242, 243, 254, 45, 0, 190, 40, 106, 43, 200, 199, 7, 
    51, 212, 232, 11, 20, 253, 244, 215, 29, 41, 217, 9, 
    42, 56, 216, 86, 230, 39, 52, 55, 56, 26, 215, 19, 
    218, 243, 245, 67, 215, 53, 75, 255, 19, 203, 210, 18, 
    44, 205, 20, 233, 222, 57, 188, 224, 68, 236, 30, 122, 
    69, 66, 202, 234, 30, 12, 189, 205, 28, 254, 188, 57, 
    196, 243, 56, 127, 30, 28, 233, 226, 5, 230, 42, 58, 
    58, 180, 229, 252, 63, 235, 39, 118, 69, 204, 239, 50, 
    14, 26, 51, 56, 45, 37, 223, 21, 18, 194, 54, 66, 
    228, 45, 222, 248, 29, 181, 123, 227, 31, 57, 197, 36, 
    35, 32, 224, 16, 66, 10, 194, 20, 60, 66, 229, 67, 
    31, 25, 227, 12, 197, 210, 48, 29, 199, 50, 19, 16, 
    218, 214, 39, 250, 187, 238, 30, 200, 63, 141, 6, 15, 
    180, 22, 27, 25, 57, 14, 224, 138, 247, 215, 248, 61, 
    238, 13, 192, 215, 184, 62, 48, 209, 224, 63, 150, 224, 
    180, 209, 74, 204, 22, 195, 58, 19, 200, 7, 34, 212, 
    22, 47, 12, 136, 136, 254, 245, 41, 41, 24, 195, 5, 
    206, 40, 4, 254, 179, 245, 156, 197, 2, 212, 70, 184, 
    217, 252, 33, 246, 14, 228, 240, 39, 231, 16, 65, 246, 
    215, 41, 28, 8, 20, 27, 195, 166, 179, 40, 27, 244, 
    184, 80, 214, 243, 231, 232, 226, 212, 68, 187, 12, 246, 
    195, 235, 241, 4, 68, 219, 32, 219, 10, 30, 40, 183, 
    0, 203, 224, 225, 34, 72, 239, 253, 6, 47, 225, 164, 
    211, 18, 59, 253, 70, 190, 21, 198, 228, 238, 9, 60, 
    206, 242, 247, 129, 199, 238, 234, 3, 10, 243, 199, 20, 
    206, 57, 42, 217, 231, 34, 196, 236, 243, 64, 22, 185, 
    36, 180, 29, 42, 193, 56, 7, 6, 246, 11, 76, 196, 
    1, 231, 45, 53, 224, 22, 222, 37, 199, 246, 204, 252, 
    202, 12, 227, 204, 47, 5, 216, 206, 227, 174, 21, 13, 
    29, 251, 56, 34, 31, 241, 50, 168, 166, 70, 231, 7, 
    61, 12, 16, 188, 9, 18, 229, 65, 13, 0, 219, 198, 
    11, 225, 87, 153, 4, 246, 35, 185, 19, 7, 207, 44, 
    236, 28, 235, 225, 224, 235, 233, 26, 75, 40, 45, 2, 
    199, 75, 238, 5, 151, 73, 219, 233, 225, 189, 53, 161, 
    24, 223, 10, 50, 58, 50, 224, 13, 246, 42, 253, 196, 
    173, 36, 250, 238, 207, 24, 27, 217, 181, 12, 57, 50, 
    231, 240, 215, 138, 186, 14, 244, 30, 233, 49, 198, 217, 
    231, 251, 1, 225, 193, 244, 233, 201, 184, 25, 205, 46, 
    229, 8, 212, 29, 229, 38, 240, 11, 252, 245, 214, 32, 
    191, 30, 249, 220, 27, 221, 236, 1, 45, 230, 206, 216, 
    245, 4, 0, 211, 129, 15, 100, 218, 233, 12, 31, 5, 
    225, 7, 20, 231, 220, 220, 210, 183, 164, 63, 30, 251, 
    17, 249, 220, 219, 229, 226, 14, 253, 205, 248, 236, 218, 
    129, 187, 120, 8, 15, 16, 15, 220, 46, 48, 222, 55, 
    37, 16, 0, 192, 183, 22, 251, 37, 5, 223, 33, 23, 
    51, 1, 17, 214, 214, 226, 240, 235, 167, 13, 21, 37, 
    213, 253, 7, 46, 236, 39, 16, 255, 236, 245, 26, 5, 
    224, 61, 9, 44, 41, 45, 41, 2, 240, 11, 245, 22, 
    188, 36, 234, 197, 252, 221, 102, 58, 254, 251, 224, 43, 
    235, 243, 42, 52, 36, 229, 18, 248, 179, 40, 10, 63, 
    206, 29, 27, 229, 23, 218, 48, 29, 239, 15, 7, 212, 
    167, 200, 22, 21, 18, 22, 20, 253, 234, 241, 27, 40, 
    233, 214, 42, 14, 71, 37, 19, 25, 50, 234, 30, 70, 
    33, 211, 245, 9, 235, 236, 37, 218, 21, 246, 10, 39, 
    9, 43, 35, 104, 255, 236, 55, 231, 35, 32, 83, 15, 
    57, 51, 4, 223, 245, 3, 222, 67, 59, 214, 41, 58, 
    228, 2, 219, 28, 248, 39, 89, 77, 18, 234, 213, 63, 
    230, 251, 62, 53, 23, 63, 18, 220, 15, 233, 229, 250, 
    240, 39, 50, 45, 19, 18, 21, 57, 244, 236, 242, 47, 
    202, 248, 113, 69, 59, 53, 44, 87, 26, 15, 247, 40, 
    233, 219, 104, 5, 89, 7, 209, 37, 8, 239, 207, 43, 
    225, 218, 218, 246, 255, 220, 208, 0, 5, 213, 210, 41, 
    246, 209, 7, 14, 33, 32, 214, 192, 14, 215, 84, 177, 
    240, 190, 197, 45, 28, 177, 13, 78, 236, 52, 217, 64, 
    250, 31, 228, 204, 17, 11, 64, 17, 25, 49, 57, 56, 
    15, 25, 22, 7, 238, 0, 55, 210, 243, 227, 194, 234, 
    241, 200, 227, 234, 17, 14, 202, 15, 209, 10, 6, 45, 
    10, 227, 42, 55, 17, 47, 62, 87, 245, 41, 234, 4, 
    242, 203, 48, 210, 58, 15, 220, 251, 247, 181, 226, 13, 
    253, 227, 254, 241, 50, 26, 48, 42, 246, 229, 225, 26, 
    201, 14, 75, 23, 214, 225, 241, 254, 42, 19, 113, 206, 
    39, 203, 27, 249, 4, 219, 8, 5, 245, 20, 233, 16, 
    238, 223, 11, 18, 32, 50, 58, 77, 253, 28, 38, 14, 
    23, 10, 18, 215, 200, 206, 81, 206, 253, 4, 24, 228, 
    1, 15, 40, 7, 216, 234, 234, 70, 60, 22, 39, 228, 
    38, 60, 20, 34, 233, 42, 240, 9, 248, 200, 222, 11, 
    229, 235, 107, 249, 49, 210, 203, 31, 18, 214, 18, 14, 
    55, 21, 226, 50, 71, 38, 212, 0, 211, 3, 37, 23, 
    202, 22, 22, 118, 238, 250, 249, 209, 236, 21, 61, 196, 
    7, 241, 30, 34, 56, 186, 3, 76, 19, 251, 196, 8, 
    65, 39, 16, 28, 33, 0, 23, 242, 189, 214, 222, 102, 
    191, 217, 229, 253, 196, 255, 81, 210, 36, 219, 222, 25, 
    57, 174, 10, 61, 225, 234, 8, 27, 255, 241, 221, 1, 
    53, 61, 81, 240, 189, 9, 254, 72, 199, 19, 41, 15, 
    13, 225, 127, 199, 248, 242, 87, 211, 62, 18, 222, 58, 
    247, 181, 44, 12, 54, 33, 21, 46, 181, 187, 87, 34, 
    250, 2, 78, 190, 177, 73, 89, 155, 191, 187, 60, 202, 
    201, 48, 146, 201, 158, 45, 174, 34, 235, 61, 246, 138, 
    189, 174, 136, 227, 153, 190, 221, 243, 181, 171, 247, 18, 
    52, 143, 140, 186, 93, 203, 171, 235, 253, 22, 44, 25, 
    41, 67, 226, 63, 3, 252, 89, 161, 91, 184, 140, 210, 
    129, 51, 47, 86, 5, 224, 23, 13, 218, 12, 9, 129, 
    166, 168, 200, 17, 201, 57, 34, 239, 167, 74, 33, 89, 
    221, 24, 46, 4, 13, 134, 200, 226, 21, 37, 247, 0, 
    239, 201, 255, 222, 223, 241, 27, 195, 170, 75, 217, 139, 
    212, 59, 7, 91, 182, 196, 208, 208, 68, 69, 157, 167, 
    23, 79, 7, 149, 243, 227, 240, 86, 57, 210, 208, 208, 
    138, 155, 232, 200, 75, 174, 144, 223, 208, 74, 168, 50, 
    55, 149, 44, 235, 228, 36, 51, 3, 59, 3, 137, 225, 
    171, 234, 84, 211, 35, 220, 56, 240, 197, 255, 88, 187, 
    77, 132, 158, 150, 117, 143, 67, 152, 220, 14, 188, 213, 
    148, 9, 45, 68, 58, 40, 133, 66, 63, 78, 220, 12, 
    190, 68, 137, 236, 67, 209, 176, 202, 67, 21, 228, 91, 
    56, 100, 62, 151, 133, 171, 54, 186, 26, 49, 78, 182, 
    170, 172, 213, 189, 55, 210, 90, 197, 27, 191, 85, 93, 
    157, 244, 250, 4, 56, 149, 226, 83, 200, 237, 61, 187, 
    29, 152, 148, 202, 139, 217, 48, 29, 248, 79, 201, 34, 
    129, 16, 56, 192, 49, 67, 217, 102, 247, 79, 144, 166, 
    211, 89, 135, 80, 38, 242, 5, 245, 40, 235, 255, 54, 
    27, 18, 17, 252, 33, 11, 41, 86, 80, 224, 5, 50, 
    216, 46, 15, 35, 218, 12, 227, 7, 226, 211, 62, 18, 
    39, 26, 213, 251, 14, 32, 230, 83, 240, 235, 8, 248, 
    1, 16, 28, 92, 26, 22, 227, 78, 17, 10, 229, 70, 
    242, 13, 247, 246, 221, 249, 47, 94, 51, 24, 213, 14, 
    20, 221, 212, 79, 252, 252, 246, 23, 232, 28, 247, 47, 
    108, 15, 225, 40, 226, 246, 253, 94, 219, 234, 220, 194, 
    1, 208, 79, 92, 11, 252, 218, 244, 41, 22, 203, 71, 
    27, 19, 194, 21, 28, 28, 39, 102, 47, 14, 45, 36, 
    13, 48, 253, 65, 219, 240, 210, 213, 26, 254, 45, 47, 
    32, 6, 210, 8, 55, 0, 214, 90, 222, 252, 243, 27, 
    37, 2, 252, 14, 80, 254, 205, 251, 234, 28, 1, 46, 
    3, 22, 17, 192, 233, 210, 13, 18, 52, 25, 213, 18, 
    14, 24, 250, 61, 249, 209, 225, 45, 39, 210, 249, 92, 
    82, 23, 15, 58, 6, 237, 51, 44, 234, 3, 238, 254, 
    21, 241, 73, 60, 15, 40, 231, 41, 246, 29, 15, 127, 
    231, 231, 227, 4, 23, 249, 27, 27, 62, 245, 34, 32, 
    7, 244, 22, 111, 31, 227, 203, 231, 232, 239, 53, 77, 
    47, 15, 255, 31, 3, 35, 229, 117, 24, 18, 233, 41, 
    243, 36, 226, 55, 28, 5, 242, 34, 0, 26, 5, 91, 
    31, 246, 1, 236, 43, 200, 34, 95, 45, 14, 231, 7, 
    230, 41, 11, 88, 255, 243, 216, 247, 232, 205, 249, 84, 
    68, 45, 13, 5, 7, 232, 16, 56, 45, 249, 11, 8, 
    47, 210, 13, 13, 11, 236, 240, 211, 252, 14, 7, 129, 
    239, 37, 11, 37, 227, 227, 29, 34, 84, 223, 20, 211, 
    238, 1, 252, 177, 19, 221, 216, 246, 238, 212, 193, 246, 
    11, 7, 242, 13, 218, 205, 241, 204, 235, 36, 230, 246, 
    31, 9, 236, 56, 70, 1, 233, 202, 239, 21, 203, 226, 
    7, 240, 213, 253, 200, 245, 244, 27, 211, 2, 11, 239, 
    22, 236, 231, 171, 228, 215, 25, 23, 38, 11, 17, 17, 
    91, 9, 16, 203, 233, 202, 224, 249, 232, 0, 213, 14, 
    199, 234, 187, 245, 216, 220, 6, 30, 224, 21, 252, 212, 
    12, 227, 40, 34, 1, 212, 228, 31, 106, 26, 235, 203, 
    4, 221, 238, 16, 28, 14, 15, 2, 216, 28, 233, 75, 
    214, 218, 11, 236, 25, 226, 243, 248, 16, 7, 32, 221, 
    243, 30, 6, 32, 59, 41, 186, 253, 220, 213, 4, 251, 
    17, 216, 254, 0, 239, 1, 17, 33, 17, 29, 27, 205, 
    246, 230, 0, 201, 237, 39, 19, 226, 8, 13, 1, 40, 
    42, 246, 210, 225, 229, 226, 24, 247, 222, 220, 243, 240, 
    25, 14, 2, 25, 12, 245, 15, 4, 225, 59, 60, 21, 
    216, 40, 11, 3, 20, 0, 23, 51, 108, 5, 11, 191, 
    1, 246, 225, 229, 42, 226, 245, 238, 24, 1, 231, 101, 
    246, 35, 230, 243, 29, 41, 22, 14, 18, 220, 44, 11, 
    8, 4, 209, 50, 97, 250, 218, 5, 4, 248, 39, 238, 
    245, 26, 22, 237, 57, 40, 7, 92, 223, 245, 18, 231, 
    23, 247, 240, 241, 9, 36, 39, 200, 22, 20, 20, 68, 
    43, 17, 235, 208, 54, 53, 13, 211, 254, 234, 230, 239, 
    46, 45, 27, 85, 45, 254, 218, 37, 3, 4, 204, 55, 
    73, 46, 216, 4, 44, 24, 210, 94, 37, 229, 247, 13, 
    241, 14, 63, 80, 21, 252, 218, 223, 234, 235, 126, 27, 
    20, 210, 42, 34, 26, 56, 190, 120, 9, 18, 206, 59, 
    214, 33, 227, 81, 34, 36, 17, 68, 208, 56, 24, 11, 
    201, 232, 236, 19, 48, 186, 79, 43, 41, 1, 40, 10, 
    32, 22, 222, 32, 46, 228, 11, 216, 245, 245, 28, 95, 
    18, 237, 44, 61, 189, 10, 77, 91, 10, 207, 3, 209, 
    247, 232, 61, 77, 12, 229, 48, 24, 68, 248, 17, 217, 
    9, 34, 23, 11, 31, 246, 56, 63, 13, 21, 8, 18, 
    242, 25, 27, 17, 43, 231, 28, 207, 4, 209, 14, 54, 
    8, 207, 214, 226, 33, 185, 234, 1, 6, 248, 207, 72, 
    16, 212, 57, 234, 231, 41, 211, 231, 208, 11, 255, 38, 
    21, 244, 249, 236, 8, 188, 222, 35, 80, 212, 211, 225, 
    243, 233, 241, 217, 227, 18, 240, 30, 40, 32, 228, 26, 
    18, 41, 226, 14, 189, 38, 8, 38, 251, 223, 11, 15, 
    10, 178, 241, 16, 220, 210, 185, 157, 202, 141, 161, 188, 
    225, 239, 252, 35, 207, 231, 6, 42, 8, 15, 10, 36, 
    7, 200, 4, 106, 248, 223, 204, 236, 196, 187, 168, 242, 
    8, 249, 247, 151, 12, 151, 192, 221, 217, 11, 221, 227, 
    251, 232, 230, 6, 228, 202, 184, 41, 222, 21, 246, 39, 
    188, 253, 17, 232, 251, 190, 174, 45, 237, 222, 249, 129, 
    227, 187, 173, 242, 1, 12, 202, 46, 233, 32, 203, 37, 
    75, 207, 25, 226, 241, 17, 205, 118, 248, 16, 212, 8, 
    203, 22, 139, 231, 5, 215, 44, 24, 234, 239, 21, 253, 
    239, 13, 222, 50, 234, 241, 1, 96, 61, 238, 229, 224, 
    4, 196, 215, 15, 202, 236, 200, 255, 208, 234, 51, 96, 
    40, 217, 47, 247, 44, 202, 212, 229, 16, 224, 10, 231, 
    253, 241, 8, 46, 27, 247, 240, 9, 207, 233, 228, 9, 
    203, 31, 250, 240, 197, 207, 231, 15, 230, 3, 43, 185, 
    42, 186, 239, 209, 4, 16, 19, 39, 22, 213, 9, 89, 
    110, 240, 36, 236, 191, 10, 20, 227, 23, 205, 39, 209, 
    175, 34, 11, 12, 48, 220, 28, 12, 50, 22, 15, 25, 
    241, 3, 16, 34, 215, 18, 42, 52, 34, 6, 221, 253, 
    18, 238, 220, 28, 25, 202, 253, 8, 238, 231, 4, 80, 
    43, 210, 43, 11, 0, 19, 198, 16, 26, 1, 208, 0, 
    33, 25, 19, 50, 61, 226, 15, 244, 254, 226, 227, 8, 
    219, 25, 7, 23, 205, 51, 249, 27, 33, 195, 218, 237, 
    231, 216, 26, 252, 40, 247, 218, 228, 231, 4, 22, 86, 
    127, 48, 205, 47, 210, 1, 22, 12, 216, 226, 7, 255, 
    12, 51, 250, 28, 219, 33, 41, 29, 219, 51, 8, 8, 
    30, 233, 207, 13, 222, 13, 3, 48, 33, 9, 26, 208, 
    218, 7, 32, 206, 59, 227, 253, 230, 18, 238, 34, 46, 
    1, 36, 22, 28, 0, 14, 20, 240, 210, 34, 234, 240, 
    31, 222, 34, 81, 99, 32, 15, 232, 46, 255, 46, 13, 
    72, 235, 225, 1, 18, 220, 252, 94, 200, 21, 22, 233, 
    249, 72, 35, 239, 49, 12, 35, 206, 250, 249, 216, 90, 
    94, 40, 225, 5, 236, 7, 2, 190, 32, 214, 211, 31, 
    63, 232, 255, 120, 4, 51, 80, 35, 208, 83, 43, 213, 
    65, 45, 74, 45, 188, 27, 8, 192, 208, 239, 13, 241, 
    45, 54, 50, 207, 47, 89, 87, 47, 81, 50, 155, 19, 
    205, 21, 7, 62, 220, 1, 31, 152, 33, 45, 223, 0, 
    228, 85, 29, 208, 156, 209, 244, 18, 245, 41, 60, 221, 
    59, 78, 45, 35, 18, 12, 143, 235, 189, 41, 251, 2, 
    234, 15, 97, 241, 50, 21, 59, 11, 199, 14, 227, 202, 
    174, 255, 247, 216, 255, 28, 65, 206, 248, 19, 10, 61, 
    20, 248, 236, 210, 194, 94, 65, 90, 227, 238, 48, 129, 
    252, 230, 84, 193, 221, 249, 228, 239, 146, 252, 36, 47, 
    70, 25, 20, 189, 33, 72, 73, 95, 53, 67, 133, 28, 
    176, 42, 39, 67, 231, 38, 243, 144, 48, 223, 82, 22, 
    195, 95, 38, 13, 186, 229, 248, 211, 23, 10, 36, 5, 
    82, 49, 243, 21, 45, 44, 190, 192, 240, 25, 242, 17, 
    20, 27, 92, 226, 33, 52, 255, 226, 216, 7, 200, 234, 
    141, 35, 57, 22, 9, 65, 56, 204, 246, 75, 255, 1, 
    53, 3, 208, 6, 231, 92, 14, 238, 23, 222, 45, 238, 
    10, 9, 8, 215, 250, 51, 255, 226, 194, 56, 251, 212, 
    235, 243, 2, 14, 35, 75, 86, 16, 28, 52, 212, 166, 
    222, 65, 30, 68, 32, 57, 44, 190, 224, 219, 75, 44, 
    5, 78, 232, 185, 147, 211, 95, 224, 250, 247, 21, 219, 
    70, 11, 52, 47, 57, 8, 213, 189, 171, 35, 77, 11, 
    241, 227, 43, 232, 30, 30, 33, 208, 35, 50, 20, 249, 
    131, 3, 44, 19, 81, 72, 64, 249, 34, 62, 73, 39, 
    42, 13, 169, 194, 224, 29, 26, 238, 204, 247, 45, 147, 
    252, 243, 41, 14, 240, 239, 250, 23, 216, 1, 22, 215, 
    36, 20, 249, 204, 247, 224, 38, 49, 10, 32, 244, 249, 
    23, 35, 27, 234, 2, 0, 11, 139, 41, 253, 227, 205, 
    246, 37, 199, 232, 211, 21, 79, 22, 12, 5, 220, 213, 
    240, 13, 21, 39, 242, 232, 255, 212, 211, 16, 240, 24, 
    227, 253, 44, 129, 27, 215, 239, 197, 244, 3, 221, 33, 
    179, 10, 38, 201, 236, 28, 224, 233, 19, 30, 234, 254, 
    60, 225, 227, 226, 242, 252, 16, 4, 21, 5, 11, 175, 
    38, 245, 7, 235, 230, 5, 11, 14, 187, 208, 253, 7, 
    14, 35, 222, 210, 45, 252, 10, 241, 68, 245, 235, 222, 
    224, 16, 226, 14, 219, 245, 13, 176, 248, 248, 1, 14, 
    224, 28, 242, 11, 189, 30, 19, 226, 237, 4, 36, 239, 
    39, 11, 4, 8, 246, 254, 250, 218, 6, 61, 19, 39, 
    199, 22, 254, 189, 48, 217, 233, 224, 237, 247, 4, 43, 
    219, 253, 68, 208, 255, 44, 35, 211, 27, 239, 6, 34, 
    70, 251, 14, 227, 218, 37, 25, 46, 225, 234, 6, 252, 
    238, 34, 7, 224, 6, 23, 233, 0, 206, 224, 231, 209, 
    4, 233, 242, 233, 31, 8, 38, 15, 21, 19, 14, 30, 
    239, 43, 227, 21, 11, 22, 1, 211, 28, 254, 244, 213, 
    215, 9, 222, 247, 246, 204, 27, 226, 255, 47, 231, 3, 
    16, 33, 0, 45, 9, 35, 231, 226, 10, 51, 236, 36, 
    233, 243, 28, 251, 3, 30, 50, 216, 11, 251, 228, 29, 
    0, 225, 84, 21, 33, 4, 41, 234, 23, 49, 45, 18, 
    63, 242, 213, 5, 216, 66, 13, 235, 210, 8, 12, 146, 
    216, 6, 247, 31, 236, 245, 198, 231, 164, 25, 244, 1, 
    0, 56, 41, 252, 255, 20, 9, 215, 76, 219, 173, 251, 
    232, 4, 240, 20, 224, 46, 19, 138, 219, 246, 231, 20, 
    246, 203, 38, 213, 236, 231, 85, 214, 255, 24, 47, 197, 
    35, 34, 33, 253, 29, 19, 200, 250, 29, 48, 21, 247, 
    227, 39, 34, 129, 20, 21, 221, 211, 204, 40, 27, 239, 
    232, 209, 13, 225, 233, 34, 35, 238, 243, 218, 45, 11, 
    32, 211, 167, 221, 254, 36, 230, 239, 196, 250, 18, 183, 
    47, 24, 240, 197, 212, 12, 248, 221, 250, 8, 218, 202, 
    220, 250, 236, 23, 51, 239, 16, 28, 80, 54, 218, 228, 
    18, 19, 4, 29, 220, 246, 252, 252, 244, 44, 38, 14, 
    221, 29, 196, 51, 228, 8, 23, 18, 25, 44, 237, 224, 
    232, 29, 52, 13, 58, 12, 20, 1, 23, 67, 48, 58, 
    18, 45, 247, 4, 15, 250, 234, 26, 34, 246, 30, 42, 
    219, 240, 86, 17, 243, 31, 234, 25, 241, 225, 222, 250, 
    40, 54, 225, 244, 205, 35, 244, 30, 212, 7, 215, 254, 
    245, 29, 29, 209, 220, 251, 28, 251, 208, 231, 2, 28, 
    58, 250, 247, 245, 240, 255, 54, 26, 239, 238, 222, 0, 
    15, 35, 43, 47, 3, 20, 7, 244, 31, 7, 28, 0, 
    226, 254, 248, 40, 184, 240, 93, 4, 24, 242, 18, 182, 
    14, 35, 39, 232, 250, 37, 201, 32, 9, 31, 207, 245, 
    219, 254, 250, 249, 25, 234, 255, 27, 225, 45, 17, 230, 
    189, 17, 38, 15, 53, 46, 30, 173, 59, 33, 13, 50, 
    54, 36, 15, 18, 32, 31, 241, 43, 246, 200, 61, 249, 
    10, 3, 211, 61, 11, 20, 49, 229, 211, 16, 240, 210, 
    109, 17, 217, 201, 68, 225, 113, 252, 4, 36, 187, 200, 
    173, 243, 217, 51, 49, 13, 235, 87, 28, 237, 61, 56, 
    161, 90, 75, 34, 14, 157, 167, 235, 123, 181, 203, 185, 
    203, 112, 217, 250, 66, 46, 54, 77, 149, 82, 86, 202, 
    31, 119, 37, 100, 184, 54, 43, 251, 178, 53, 3, 233, 
    54, 67, 224, 174, 213, 20, 210, 69, 248, 105, 244, 234, 
    27, 83, 31, 178, 254, 34, 190, 26, 26, 195, 97, 39, 
    58, 200, 112, 205, 222, 235, 168, 72, 240, 163, 239, 190, 
    0, 37, 215, 251, 187, 5, 33, 94, 107, 99, 60, 212, 
    45, 253, 39, 44, 158, 7, 33, 255, 158, 234, 197, 17, 
    16, 213, 77, 243, 242, 29, 190, 226, 113, 57, 155, 252, 
    24, 209, 206, 71, 183, 214, 172, 81, 18, 20, 235, 219, 
    60, 58, 27, 157, 196, 51, 110, 45, 13, 127, 159, 42, 
    42, 33, 0, 73, 203, 198, 198, 72, 200, 98, 102, 58, 
    196, 53, 95, 68, 241, 117, 233, 71, 67, 102, 27, 51, 
    27, 241, 192, 136, 178, 51, 219, 236, 14, 153, 205, 216, 
    7, 99, 189, 30, 71, 108, 242, 98, 63, 212, 227, 186, 
    49, 118, 92, 33, 6, 202, 210, 49, 241, 203, 60, 16, 
    175, 214, 224, 51, 62, 8, 230, 80, 114, 91, 244, 240, 
    174, 8, 89, 39, 27, 177, 10, 224, 241, 39, 231, 254, 
    214, 83, 241, 47, 76, 98, 225, 244, 12, 127, 174, 13, 
    11, 214, 36, 52, 225, 51, 235, 91, 192, 210, 20, 78, 
    40, 75, 238, 210, 14, 63, 226, 60, 15, 218, 1, 122, 
    25, 241, 53, 10, 202, 32, 244, 26, 241, 223, 219, 33, 
    42, 24, 37, 70, 205, 1, 47, 254, 25, 62, 12, 249, 
    35, 11, 247, 254, 206, 37, 37, 127, 253, 211, 251, 187, 
    201, 60, 0, 230, 220, 215, 241, 217, 9, 202, 214, 43, 
    4, 21, 34, 247, 199, 18, 69, 89, 75, 3, 226, 2, 
    189, 231, 255, 20, 208, 207, 216, 6, 206, 246, 215, 15, 
    35, 24, 14, 224, 2, 181, 205, 71, 4, 14, 217, 28, 
    242, 2, 55, 27, 248, 236, 44, 246, 218, 238, 239, 125, 
    43, 240, 32, 254, 246, 68, 213, 26, 49, 225, 249, 191, 
    54, 196, 252, 83, 223, 228, 244, 47, 28, 226, 25, 65, 
    32, 254, 223, 46, 10, 50, 27, 75, 213, 222, 11, 22, 
    232, 217, 2, 254, 71, 18, 32, 246, 223, 234, 6, 246, 
    197, 10, 34, 56, 202, 3, 79, 72, 234, 226, 56, 14, 
    196, 238, 206, 40, 221, 238, 18, 186, 41, 40, 41, 39, 
    20, 185, 172, 193, 33, 178, 34, 52, 182, 2, 35, 207, 
    225, 55, 44, 46, 38, 231, 247, 248, 230, 49, 45, 66, 
    236, 237, 19, 219, 247, 54, 251, 52, 22, 181, 216, 6, 
    250, 191, 232, 40, 223, 30, 211, 13, 45, 36, 15, 61, 
    250, 80, 45, 50, 198, 12, 233, 72, 243, 36, 213, 215, 
    19, 38, 14, 73, 246, 239, 30, 37, 46, 220, 36, 67, 
    183, 56, 23, 26, 203, 222, 251, 5, 56, 35, 52, 232, 
    208, 0, 215, 97, 47, 253, 223, 222, 4, 218, 0, 22, 
    98, 242, 203, 244, 250, 204, 231, 36, 0, 37, 211, 228, 
    253, 50, 56, 62, 19, 7, 27, 42, 235, 242, 24, 217, 
    19, 15, 13, 12, 61, 231, 214, 197, 138, 38, 215, 166, 
    75, 222, 228, 9, 16, 39, 68, 41, 69, 39, 161, 244, 
    234, 240, 226, 19, 35, 1, 1, 243, 201, 238, 59, 183, 
    41, 80, 47, 188, 155, 22, 77, 243, 71, 215, 49, 154, 
    54, 33, 217, 52, 229, 52, 190, 250, 231, 220, 37, 34, 
    235, 217, 30, 31, 204, 5, 49, 217, 213, 84, 216, 185, 
    253, 70, 14, 236, 33, 239, 30, 152, 208, 45, 77, 47, 
    61, 246, 183, 186, 207, 217, 38, 247, 25, 4, 243, 254, 
    247, 216, 251, 251, 9, 237, 35, 225, 170, 61, 31, 175, 
    15, 228, 208, 251, 203, 17, 3, 51, 188, 80, 247, 26, 
    229, 59, 247, 25, 222, 59, 27, 17, 212, 4, 254, 25, 
    40, 34, 212, 176, 129, 252, 48, 21, 11, 2, 0, 219, 
    22, 234, 78, 14, 217, 52, 205, 182, 223, 243, 220, 214, 
    10, 236, 27, 11, 53, 61, 228, 203, 203, 254, 71, 237, 
    138, 56, 205, 13, 75, 46, 231, 163, 13, 58, 230, 2, 
    245, 31, 151, 249, 229, 38, 226, 232, 26, 236, 209, 47, 
    206, 13, 63, 7, 234, 243, 198, 155, 193, 60, 29, 253, 
    56, 197, 240, 250, 227, 73, 236, 238, 12, 56, 255, 157, 
    12, 190, 74, 201, 244, 33, 217, 64, 245, 186, 233, 17, 
    244, 223, 9, 3, 204, 66, 3, 42, 17, 1, 222, 7, 
    16, 221, 233, 41, 25, 50, 191, 25, 214, 214, 80, 28, 
    231, 58, 24, 226, 202, 59, 9, 188, 11, 241, 35, 153, 
    144, 67, 227, 241, 230, 56, 202, 144, 218, 94, 78, 246, 
    217, 81, 157, 247, 23, 31, 48, 235, 30, 77, 17, 202, 
    207, 9, 51, 25, 225, 10, 46, 5, 23, 224, 203, 209, 
    93, 226, 13, 205, 248, 67, 87, 32, 235, 77, 5, 59, 
    223, 54, 246, 247, 227, 250, 66, 208, 240, 16, 247, 198, 
    44, 255, 40, 253, 44, 219, 202, 10, 64, 63, 248, 175, 
    232, 18, 6, 8, 251, 245, 160, 217, 246, 29, 92, 229, 
    211, 242, 233, 201, 218, 192, 45, 59, 207, 74, 20, 9, 
    71, 251, 166, 159, 8, 242, 209, 187, 214, 67, 239, 11, 
    214, 251, 207, 64, 32, 4, 71, 219, 15, 251, 20, 5, 
    35, 208, 45, 34, 36, 67, 210, 21, 16, 232, 218, 208, 
    46, 60, 243, 239, 227, 40, 230, 41, 244, 84, 140, 227, 
    10, 66, 10, 238, 210, 9, 217, 3, 42, 36, 37, 236, 
    30, 32, 48, 8, 12, 24, 215, 162, 49, 216, 39, 2, 
    236, 232, 48, 80, 247, 230, 190, 253, 32, 2, 2, 200, 
    245, 215, 5, 247, 200, 193, 225, 193, 38, 77, 251, 4, 
    67, 12, 129, 152, 31, 10, 228, 233, 195, 38, 56, 40, 
    47, 239, 150, 55, 18, 239, 230, 19, 210, 228, 93, 24, 
    18, 221, 248, 211, 40, 7, 56, 30, 49, 231, 29, 182, 
    21, 224, 38, 174, 238, 9, 20, 253, 43, 31, 220, 42, 
    238, 27, 51, 13, 255, 240, 54, 2, 252, 229, 74, 232, 
    28, 58, 19, 39, 3, 51, 144, 188, 236, 38, 47, 155, 
    64, 65, 50, 7, 16, 80, 165, 34, 205, 240, 52, 54, 
    44, 58, 34, 208, 223, 27, 253, 226, 247, 17, 23, 225, 
    44, 217, 204, 244, 10, 210, 23, 168, 59, 248, 36, 235, 
    255, 247, 166, 235, 80, 45, 233, 250, 226, 42, 193, 127, 
    9, 48, 26, 214, 56, 249, 253, 239, 90, 243, 254, 24, 
    198, 199, 224, 98, 38, 246, 2, 14, 240, 207, 4, 87, 
    10, 205, 254, 12, 234, 218, 213, 115, 23, 244, 240, 244, 
    205, 28, 197, 8, 9, 43, 252, 38, 198, 40, 228, 55, 
    26, 247, 172, 255, 225, 199, 53, 87, 27, 35, 24, 244, 
    214, 199, 4, 101, 8, 27, 19, 224, 47, 225, 252, 11, 
    40, 206, 188, 56, 242, 32, 57, 59, 198, 28, 171, 191, 
    35, 209, 74, 48, 99, 213, 35, 244, 0, 33, 7, 91, 
    234, 36, 5, 43, 13, 11, 56, 93, 63, 2, 27, 72, 
    24, 37, 251, 24, 5, 7, 18, 243, 215, 25, 72, 45, 
    60, 9, 221, 22, 50, 216, 196, 108, 45, 224, 228, 44, 
    15, 236, 2, 37, 118, 20, 189, 34, 219, 191, 59, 107, 
    191, 224, 248, 11, 196, 213, 11, 247, 14, 200, 228, 28, 
    229, 17, 192, 21, 71, 196, 16, 36, 14, 3, 37, 94, 
    36, 216, 13, 52, 222, 193, 71, 24, 224, 226, 244, 35, 
    186, 218, 98, 37, 6, 29, 14, 8, 31, 49, 195, 37, 
    230, 250, 32, 224, 16, 231, 63, 59, 107, 12, 208, 1, 
    27, 232, 42, 65, 25, 5, 253, 246, 197, 15, 0, 103, 
    74, 20, 239, 227, 7, 237, 17, 91, 9, 211, 5, 231, 
    63, 204, 34, 31, 90, 4, 185, 60, 212, 8, 67, 100, 
    26, 5, 231, 196, 230, 242, 90, 115, 80, 222, 17, 0, 
    21, 246, 195, 67, 211, 242, 13, 45, 27, 10, 57, 91, 
    38, 55, 231, 57, 228, 192, 41, 105, 35, 7, 182, 231, 
    239, 22, 16, 106, 30, 27, 84, 51, 54, 254, 26, 127, 
    89, 21, 201, 95, 241, 193, 34, 218, 33, 208, 211, 73, 
    219, 252, 38, 52, 177, 35, 176, 230, 44, 65, 46, 88, 
    202, 146, 232, 59, 4, 208, 244, 3, 85, 63, 187, 56, 
    38, 169, 49, 60, 228, 44, 244, 250, 209, 68, 4, 44, 
    70, 40, 219, 60, 190, 178, 248, 79, 248, 146, 191, 29, 
    13, 218, 228, 115, 248, 246, 168, 50, 39, 32, 83, 58, 
    51, 64, 253, 70, 238, 218, 244, 217, 246, 8, 195, 22, 
    199, 19, 84, 88, 188, 196, 42, 210, 225, 152, 220, 51, 
    45, 67, 64, 52, 84, 13, 229, 8, 109, 234, 233, 210, 
    213, 204, 44, 78, 217, 172, 40, 184, 40, 64, 217, 181, 
    70, 197, 192, 13, 241, 249, 177, 201, 232, 69, 43, 230, 
    49, 236, 236, 70, 34, 90, 177, 0, 232, 48, 1, 70, 
    21, 58, 241, 193, 20, 71, 49, 230, 86, 206, 196, 27, 
    215, 177, 172, 31, 209, 205, 60, 28, 188, 14, 186, 7, 
    105, 196, 174, 240, 153, 156, 29, 47, 243, 237, 251, 184, 
    37, 44, 25, 212, 238, 218, 223, 22, 214, 175, 204, 19, 
    74, 246, 161, 237, 210, 145, 232, 245, 50, 173, 220, 53, 
    195, 193, 193, 42, 181, 18, 23, 186, 164, 186, 233, 20, 
    28, 166, 31, 144, 255, 250, 170, 232, 39, 36, 228, 31, 
    31, 153, 215, 37, 61, 69, 35, 3, 228, 3, 55, 50, 
    168, 211, 21, 23, 18, 64, 36, 52, 174, 151, 208, 145, 
    194, 228, 213, 214, 78, 176, 166, 227, 215, 252, 208, 9, 
    19, 77, 194, 33, 190, 242, 251, 42, 19, 230, 240, 247, 
    250, 208, 5, 2, 244, 177, 98, 159, 82, 237, 217, 9, 
    202, 88, 83, 14, 34, 174, 41, 0, 18, 183, 211, 224, 
    68, 1, 179, 17, 163, 83, 60, 82, 239, 172, 82, 154, 
    59, 228, 36, 255, 165, 254, 230, 59, 193, 226, 62, 48, 
    24, 217, 63, 93, 194, 59, 252, 179, 243, 2, 224, 172, 
    186, 232, 1, 251, 25, 82, 59, 195, 241, 96, 13, 12, 
    83, 99, 251, 175, 21, 34, 63, 227, 222, 162, 213, 221, 
    68, 37, 70, 217, 139, 197, 185, 76, 167, 235, 90, 93, 
    196, 230, 37, 181, 49, 71, 29, 157, 228, 178, 43, 241, 
    149, 16, 23, 198, 242, 129, 146, 39, 226, 2, 41, 1, 
    21, 167, 224, 174, 230, 179, 195, 7, 134, 207, 82, 24, 
    243, 158, 134, 233, 152, 183, 184, 43, 180, 56, 153, 174, 
    197, 37, 54, 186, 254, 45, 162, 220, 33, 213, 198, 222, 
    197, 141, 38, 38, 169, 178, 213, 222, 245, 166, 172, 30, 
    221, 156, 215, 16, 204, 199, 31, 26, 155, 214, 161, 209, 
    141, 91, 188, 237, 67, 30, 224, 150, 187, 206, 59, 19, 
    219, 225, 227, 233, 210, 30, 165, 36, 185, 219, 69, 130, 
    2, 241, 192, 8, 180, 242, 55, 237, 228, 204, 2, 173, 
    3, 4, 166, 56, 24, 204, 185, 53, 17, 68, 71, 69, 
    89, 22, 160, 36, 78, 30, 75, 207, 28, 34, 185, 176, 
    63, 220, 60, 155, 200, 205, 80, 211, 74, 66, 147, 41, 
    50, 37, 18, 204, 44, 198, 195, 89, 35, 188, 23, 251, 
    35, 180, 208, 216, 36, 147, 163, 188, 169, 33, 61, 212, 
    205, 172, 157, 156, 32, 163, 69, 219, 91, 163, 233, 196, 
    180, 219, 190, 91, 237, 240, 241, 216, 14, 6, 2, 6, 
    198, 250, 4, 242, 46, 250, 245, 49, 107, 238, 12, 255, 
    248, 225, 18, 243, 215, 232, 7, 251, 8, 19, 217, 22, 
    31, 216, 42, 6, 33, 212, 248, 12, 218, 24, 245, 46, 
    48, 244, 5, 68, 127, 46, 201, 27, 221, 18, 217, 251, 
    242, 19, 1, 34, 193, 31, 8, 37, 245, 8, 26, 213, 
    239, 207, 247, 2, 238, 21, 25, 0, 255, 212, 17, 57, 
    100, 251, 217, 22, 11, 219, 11, 0, 215, 243, 215, 15, 
    245, 245, 236, 9, 244, 32, 226, 32, 228, 32, 237, 19, 
    231, 16, 34, 219, 242, 249, 13, 88, 115, 31, 49, 248, 
    27, 228, 240, 3, 255, 215, 217, 18, 244, 230, 236, 25, 
    1, 207, 15, 255, 224, 238, 252, 2, 221, 2, 246, 228, 
    40, 210, 0, 29, 115, 5, 186, 234, 246, 3, 251, 29, 
    11, 250, 242, 239, 211, 20, 230, 64, 234, 232, 221, 18, 
    28, 23, 245, 233, 216, 245, 13, 42, 251, 243, 18, 33, 
    118, 29, 206, 1, 243, 223, 237, 232, 25, 25, 20, 3, 
